<pad>	0
<unk>	0
<s>	0
</s>	0
▁ya	-3.20278
▁na	-3.23475
▁wa	-3.50637
▁kwa	-4.25596
▁ni	-4.50189
.	-4.71859
▁katika	-4.76643
▁za	-4.82537
▁ku	-4.87865
▁la	-4.95818
a	-5.06938
▁kuwa	-5.14621
,	-5.21858
ni	-5.38758
▁	-5.41212
▁cha	-5.4614
▁kama	-5.5062
▁moja	-5.55028
wa	-5.55588
o	-5.57415
i	-5.63637
▁ali	-5.74653
▁M	-5.80945
▁yake	-5.81363
▁kwenye	-5.81729
▁sana	-5.82981
▁ili	-5.89746
▁u	-5.94791
▁hu	-5.99607
▁watu	-6.01277
▁elfu	-6.02824
▁vya	-6.03104
na	-6.03729
▁mbili	-6.03744
▁ina	-6.05212
ji	-6.09042
e	-6.09328
▁hiyo	-6.11997
▁m	-6.14333
▁wake	-6.14595
▁mia	-6.16204
▁mwaka	-6.17236
▁nchi	-6.18096
▁ana	-6.18515
li	-6.19088
m	-6.19337
ka	-6.2054
▁kutoka	-6.22902
▁wana	-6.24022
▁Wa	-6.24656
▁zaidi	-6.29378
▁kwamba	-6.29549
▁Ali	-6.29862
▁pia	-6.30988
▁au	-6.32254
▁nchini	-6.33221
▁wali	-6.34328
u	-6.34531
▁U	-6.3556
zi	-6.37943
ko	-6.38498
▁hii	-6.38513
▁kumi	-6.40045
▁ma	-6.41113
▁Ku	-6.44121
▁a	-6.46816
▁tu	-6.47279
ki	-6.4956
▁wakati	-6.5108
▁huo	-6.52943
▁tisa	-6.53361
▁una	-6.53992
la	-6.55539
ra	-6.55573
ti	-6.56309
▁ame	-6.56554
▁siku	-6.56892
▁kila	-6.56992
ma	-6.58353
▁alikuwa	-6.59509
▁huu	-6.59593
si	-6.60333
ku	-6.61481
▁ki	-6.61583
▁wengi	-6.6197
▁Kwa	-6.63046
▁Afrika	-6.63882
▁mwa	-6.64486
▁hivyo	-6.66698
▁Tanzania	-6.67697
le	-6.69176
▁kubwa	-6.69379
▁kazi	-6.70484
ta	-6.7061
ri	-6.71464
▁baada	-6.71527
▁Ma	-6.7163
▁tatu	-6.71636
▁lugha	-6.72367
▁hadi	-6.72374
▁Na	-6.73025
▁ambayo	-6.73139
▁Ni	-6.74158
▁Ki	-6.74592
▁kuna	-6.76509
ya	-6.78041
▁pamoja	-6.7815
n	-6.78344
s	-6.78697
we	-6.79458
▁ime	-6.79484
▁aki	-6.79945
▁kati	-6.80175
▁sasa	-6.81113
▁hilo	-6.81254
▁ugonjwa	-6.8133
▁lakini	-6.81919
po	-6.8234
▁mara	-6.83022
▁tano	-6.8361
▁yao	-6.84168
sha	-6.84905
▁ishirini	-6.85563
▁kwanza	-6.8592
▁wame	-6.85931
▁mbalimbali	-6.88325
▁juu	-6.88667
▁sehemu	-6.89568
▁nyingi	-6.89758
▁ambao	-6.90912
▁miaka	-6.91245
▁mtu	-6.91373
pata	-6.91705
▁hali	-6.92897
fu	-6.9296
tu	-6.93797
ke	-6.9414
▁serikali	-6.94704
▁nne	-6.95162
▁ndani	-6.97646
▁eneo	-6.98554
sa	-6.9879
▁A	-6.99047
▁aka	-6.99183
▁sita	-6.99426
▁maji	-7.0013
ba	-7.00414
fanya	-7.01078
▁hata	-7.01711
mu	-7.01855
kuwa	-7.03107
▁uli	-7.03719
▁muda	-7.04503
▁walio	-7.04763
▁saba	-7.05116
▁Katika	-7.05326
▁wao	-7.067
▁si	-7.07698
▁sababu	-7.07765
▁waki	-7.07908
▁nane	-7.0897
r	-7.0943
▁kuu	-7.09563
▁maeneo	-7.09668
▁ilikuwa	-7.09758
▁i	-7.10736
weza	-7.11019
▁hayo	-7.11725
▁viazi	-7.12437
nga	-7.12753
▁jamii	-7.13507
▁kum	-7.13547
▁habari	-7.13709
▁maisha	-7.14131
▁zina	-7.14825
▁mkuu	-7.16524
▁mmoja	-7.17841
lo	-7.18534
to	-7.18991
taka	-7.19525
▁bila	-7.19745
▁Kongo	-7.19974
mi	-7.20418
▁chini	-7.20646
▁I	-7.20706
▁ume	-7.21272
▁taifa	-7.21658
▁mi	-7.21759
?	-7.22583
▁wanyama	-7.23401
za	-7.23791
l	-7.23809
▁kuhusu	-7.24171
te	-7.2433
▁muhimu	-7.25061
▁Uganda	-7.25305
ga	-7.26592
▁vi	-7.26813
▁wote	-7.27096
zo	-7.2736
▁zao	-7.2739
▁kufanya	-7.27697
▁kutokana	-7.28183
▁nyingine	-7.29324
▁iliyo	-7.29503
▁huko	-7.30663
▁lishe	-7.30814
▁Kenya	-7.31064
▁aina	-7.31081
▁huku	-7.31104
▁hao	-7.31504
▁vile	-7.32073
▁hasa	-7.32368
▁wengine	-7.32579
ro	-7.32708
▁tofauti	-7.33562
▁wanao	-7.33894
▁hili	-7.35219
vu	-7.35847
mba	-7.35914
▁aliye	-7.35915
▁duniani	-7.36558
ja	-7.36803
▁Rais	-7.36824
▁watoto	-7.36958
▁haya	-7.37186
▁walikuwa	-7.37209
▁mwezi	-7.3726
me	-7.37844
▁ndio	-7.37886
▁dunia	-7.38411
re	-7.38491
▁zote	-7.39489
▁inayo	-7.39571
▁jina	-7.39572
▁hizo	-7.39776
▁upande	-7.39804
▁mambo	-7.39862
ne	-7.39929
ru	-7.40003
▁njia	-7.40285
di	-7.40443
▁lina	-7.40708
▁yote	-7.41016
cha	-7.41714
▁huwa	-7.41861
▁mama	-7.42107
▁mkubwa	-7.42146
▁zili	-7.42768
nge	-7.42888
▁vita	-7.43438
ha	-7.43538
▁zake	-7.43543
▁kupata	-7.4439
▁tena	-7.44886
▁mengi	-7.45233
sema	-7.45359
t	-7.45513
toa	-7.45578
▁wenye	-7.45982
endelea	-7.46147
▁K	-7.4709
▁hapo	-7.47566
ona	-7.49571
pa	-7.49941
▁yenye	-7.49995
▁leo	-7.50107
▁ka	-7.50563
▁yana	-7.50852
shi	-7.51248
nda	-7.5125
▁maana	-7.51522
k	-7.51782
▁haki	-7.51849
▁hapa	-7.51952
no	-7.52427
▁kui	-7.53037
▁hawa	-7.53233
▁biashara	-7.53656
▁tuna	-7.53679
▁lili	-7.53721
▁kuji	-7.53899
▁Marekani	-7.53958
-	-7.54624
▁Baada	-7.54719
▁akiwa	-7.54869
▁nje	-7.55723
▁yangu	-7.55789
▁kabla	-7.56207
▁nafasi	-7.56211
▁kabisa	-7.56695
nya	-7.56835
▁kwenda	-7.57013
▁mu	-7.57169
▁hivi	-7.57689
▁dhidi	-7.5785
▁hizi	-7.57881
▁Pia	-7.5792
▁karibu	-7.58056
yo	-7.58268
▁Lakini	-7.58347
anza	-7.5861
▁kawaida	-7.58674
▁tanzania	-7.58841
tumia	-7.58975
▁mpaka	-7.60538
▁Hata	-7.60575
▁Kuna	-7.60626
▁bora	-7.60718
▁kipindi	-7.61036
▁Mashariki	-7.61037
▁ambaye	-7.61375
▁zinazo	-7.6217
▁chama	-7.62781
▁hifadhi	-7.62958
▁asilimia	-7.6329
▁zilizo	-7.63964
▁kutumia	-7.64234
▁huyo	-7.64587
▁asili	-7.64645
▁S	-7.64694
ye	-7.64794
!	-7.65033
ngo	-7.65601
▁kina	-7.66032
▁maneno	-7.6628
▁kusini	-7.67196
▁kupitia	-7.67293
pi	-7.67523
▁mtoto	-7.67802
▁mji	-7.68178
▁pili	-7.68494
▁shule	-7.68749
▁Wali	-7.69063
▁rais	-7.69897
▁kadhaa	-7.70031
tokea	-7.70175
▁Wakati	-7.70217
wi	-7.70252
▁kitu	-7.70397
vi	-7.70614
▁chakula	-7.70635
fa	-7.70824
da	-7.70908
penda	-7.71645
enda	-7.71676
▁kundi	-7.7195
▁hewa	-7.72056
▁sitini	-7.72215
▁wanawake	-7.72589
▁Zanzibar	-7.72801
▁T	-7.7329
▁ambapo	-7.73356
▁mbali	-7.73439
▁Ka	-7.73654
▁jeshi	-7.73758
▁sheria	-7.73938
cho	-7.74112
▁nguvu	-7.7452
▁yali	-7.74578
▁Kiswahili	-7.74724
▁hicho	-7.74726
bi	-7.74949
▁Ana	-7.75251
▁ambazo	-7.75304
▁thelathini	-7.75501
▁utafiti	-7.75769
▁sauti	-7.75896
▁iki	-7.76056
▁mazingira	-7.76491
▁Hu	-7.76524
▁nyumbani	-7.76902
▁mwenye	-7.76956
▁Mungu	-7.76959
▁baadhi	-7.7709
▁yanayo	-7.77395
weka	-7.77646
▁mataifa	-7.77692
▁taarifa	-7.77693
pe	-7.78027
▁hatua	-7.78411
p	-7.78483
▁ata	-7.78908
▁mashariki	-7.78945
ngu	-7.79286
▁yaliyo	-7.7957
▁wananchi	-7.79742
▁uta	-7.79886
d	-7.80056
▁timu	-7.80566
▁utawala	-7.81103
▁elimu	-7.81385
▁kaskazini	-7.81594
▁uchumi	-7.81613
▁tisini	-7.82224
mo	-7.82247
▁vizuri	-7.82441
jua	-7.82818
▁mpya	-7.83071
bu	-7.83684
▁mrefu	-7.83732
▁haku	-7.84276
y	-7.84324
▁ajili	-7.8461
▁kutoa	-7.84702
▁uchaguzi	-7.85436
▁dawa	-7.85549
itwa	-7.85841
▁nyumba	-7.8586
▁lime	-7.85909
lia	-7.86408
▁kuliko	-7.86499
▁mwingine	-7.86547
go	-7.87423
▁Watu	-7.87467
▁alisema	-7.87674
hi	-7.87998
▁bado	-7.88323
▁lake	-7.8871
▁ulio	-7.88715
▁alipo	-7.88778
mbo	-7.88805
▁Jamhuri	-7.8898
▁historia	-7.89206
▁Nili	-7.89422
je	-7.89439
▁kiasi	-7.89467
▁Rwanda	-7.90114
▁zime	-7.90198
▁pale	-7.90914
▁ile	-7.90927
julikana	-7.91155
▁mwanamke	-7.91261
▁waka	-7.91353
▁Si	-7.91487
shwa	-7.91503
▁chake	-7.91658
▁hamsini	-7.91724
▁pekee	-7.92012
▁mengine	-7.92507
piga	-7.92803
▁tangu	-7.93267
▁mafuta	-7.93854
▁Hii	-7.94017
▁vina	-7.94243
▁baba	-7.94549
▁familia	-7.94783
fika	-7.94912
▁tayari	-7.95022
▁jambo	-7.95034
▁ambalo	-7.95262
▁Mi	-7.95614
su	-7.95718
▁wilaya	-7.95985
▁binadamu	-7.95986
▁Mara	-7.96097
▁Vi	-7.96465
▁pa	-7.96591
ishi	-7.96782
▁nili	-7.97378
▁viongozi	-7.97446
▁kabila	-7.97446
▁afya	-7.97692
▁N	-7.98234
▁mjini	-7.98307
▁vijana	-7.98681
▁themanini	-7.9893
▁milioni	-7.98946
▁sabini	-7.99179
▁mbele	-7.99179
▁ba	-7.99439
amini	-7.99757
▁V	-8.0012
▁yetu	-8.00192
▁damu	-8.00215
patikana	-8.00221
gu	-8.00273
ze	-8.00331
toka	-8.00395
ge	-8.00663
▁idadi	-8.00991
▁unao	-8.01261
lu	-8.01375
▁uhuru	-8.01452
▁rangi	-8.01459
fi	-8.01501
▁mto	-8.01582
▁Kama	-8.01825
▁mfumo	-8.02221
▁ha	-8.02222
▁nzuri	-8.02224
▁kidogo	-8.02237
onekana	-8.03012
▁uwezo	-8.03023
▁hakuna	-8.03546
▁tarehe	-8.03779
ingia	-8.03894
chu	-8.03912
▁Wana	-8.03913
▁uki	-8.04132
▁wanajeshi	-8.04302
▁sifa	-8.04309
▁Kusini	-8.04568
b	-8.04951
▁afrika	-8.05098
kua	-8.05147
kwa	-8.05721
▁saa	-8.05825
▁kiongozi	-8.05891
▁umoja	-8.06246
hu	-8.06472
▁shughuli	-8.06773
▁yako	-8.06891
▁Siku	-8.07289
▁namna	-8.07567
▁ulikuwa	-8.0764
▁E	-8.07881
▁wata	-8.07931
▁mwisho	-8.08033
ngi	-8.08116
▁jinsi	-8.08514
▁wawili	-8.08712
▁Cha	-8.08989
▁Serikali	-8.09148
▁yame	-8.09307
pewa	-8.09447
▁unaweza	-8.09537
▁Mwaka	-8.10089
h	-8.10256
▁makubwa	-8.10274
▁maambukizi	-8.10284
▁mkoa	-8.10372
▁ngombe	-8.10541
▁ndiyo	-8.10546
▁kili	-8.10902
▁kuto	-8.11356
▁miongoni	-8.1172
▁umri	-8.11963
▁ndege	-8.12229
▁maarufu	-8.12252
bo	-8.12359
chukua	-8.1251
tumika	-8.1271
▁ikiwa	-8.13386
▁kiwango	-8.13957
hitaji	-8.14061
▁mimi	-8.14138
▁wangu	-8.14169
▁Uingereza	-8.14249
onyesha	-8.14472
▁wale	-8.14573
▁kuli	-8.14649
▁mkono	-8.14687
vyo	-8.14987
▁Ina	-8.15286
▁yeye	-8.15414
ita	-8.15417
▁sio	-8.15559
▁zamani	-8.15721
dai	-8.15958
▁arobaini	-8.16294
▁ita	-8.16329
▁Ulaya	-8.16591
▁msingi	-8.16591
saidia	-8.16608
▁Li	-8.1661
▁awali	-8.16619
▁huyu	-8.16672
▁n	-8.1683
ongoza	-8.1696
▁O	-8.17347
▁anaye	-8.17535
kuja	-8.17776
▁kwani	-8.17911
zidi	-8.18187
▁hai	-8.18253
sababisha	-8.18265
▁nini	-8.18665
▁mnyama	-8.18693
▁kike	-8.18833
▁wetu	-8.19035
rudi	-8.19393
ndi	-8.1941
▁dalili	-8.19607
▁kweli	-8.19636
pu	-8.1979
▁Alikuwa	-8.19965
▁basi	-8.20387
▁amani	-8.20398
▁siasa	-8.20532
▁mwili	-8.20757
▁Umoja	-8.20908
▁moyo	-8.21026
▁fulani	-8.21151
▁mfano	-8.21151
fanyika	-8.21289
▁dini	-8.21295
▁wako	-8.21357
▁miguu	-8.21462
▁Aka	-8.2153
▁hatari	-8.21726
▁muziki	-8.21775
▁nyuma	-8.21777
tokana	-8.21939
▁maendeleo	-8.22088
▁wala	-8.22161
▁moto	-8.22296
▁Ili	-8.22665
▁pwani	-8.22719
sho	-8.22957
▁Kila	-8.23525
▁dola	-8.2371
▁kilimo	-8.23717
▁mifugo	-8.24632
▁Ba	-8.24881
▁mingi	-8.2502
▁waziri	-8.25071
▁kwake	-8.25154
▁bidhaa	-8.25285
fikia	-8.25407
▁matumizi	-8.25644
▁wakiwa	-8.26117
▁fedha	-8.26255
▁mabadiliko	-8.26255
ju	-8.26476
▁Mu	-8.2668
▁vitu	-8.2683
eleza	-8.26936
▁Tu	-8.27061
ndo	-8.27222
▁yoyote	-8.27242
she	-8.27279
▁kimataifa	-8.27573
leta	-8.28035
▁bara	-8.28101
▁safari	-8.28239
▁ama	-8.28391
▁Mama	-8.28431
▁ila	-8.28511
nde	-8.28617
▁makabila	-8.28909
▁raia	-8.28916
wahi	-8.28923
▁kikubwa	-8.28925
▁bahari	-8.29136
▁zi	-8.2921
acha	-8.29363
▁rasmi	-8.29583
▁kusema	-8.29604
chi	-8.297
▁Ta	-8.29844
be	-8.30183
▁Jacob	-8.30263
▁waasi	-8.30453
▁Hali	-8.30636
▁inaweza	-8.30701
▁ta	-8.30764
c	-8.30809
dhi	-8.30887
▁Ha	-8.31328
gi	-8.31434
baki	-8.3172
▁lazima	-8.31832
▁Ame	-8.322
▁amesema	-8.32314
▁sawa	-8.3235
▁lililo	-8.32369
▁linalo	-8.32519
▁wenyewe	-8.32593
▁virusi	-8.32677
▁Hivyo	-8.32713
fuata	-8.33741
▁magharibi	-8.33768
so	-8.33854
▁tume	-8.34077
▁naye	-8.34468
▁haraka	-8.3466
jaribu	-8.3471
▁e	-8.34766
▁wanaweza	-8.34789
▁jumla	-8.34793
▁mkutano	-8.34793
▁meli	-8.34854
▁gani	-8.3493
▁kilicho	-8.35012
▁kisiasa	-8.3515
va	-8.3534
▁kuingia	-8.35468
▁takriban	-8.35508
▁kidemokrasia	-8.35526
nu	-8.35624
▁es	-8.362
▁iko	-8.36447
▁kuanzia	-8.3651
▁kuya	-8.36735
▁kali	-8.36818
tia	-8.37421
takiwa	-8.37589
▁sa	-8.37593
▁Baadhi	-8.37687
▁vyombo	-8.37687
▁kombe	-8.37735
▁Mkuu	-8.37784
▁humo	-8.37813
▁neno	-8.38058
▁kifo	-8.38074
▁mbaya	-8.3809
g	-8.38426
▁shirika	-8.38543
▁ngozi	-8.38816
▁vingi	-8.38828
ana	-8.38909
▁mahali	-8.38945
▁Wanyama	-8.39166
▁uka	-8.39552
▁pesa	-8.39563
▁wewe	-8.39593
che	-8.3962
▁kijeshi	-8.40289
▁ndiye	-8.403
in	-8.40318
▁kuishi	-8.40322
ho	-8.40345
▁ika	-8.40384
amua	-8.40475
▁utamaduni	-8.40666
▁anaweza	-8.40667
▁ule	-8.40706
▁Kidemokrasia	-8.40761
pita	-8.40868
pokea	-8.413
f	-8.41626
de	-8.41796
shinda	-8.41872
kaa	-8.41876
▁kale	-8.42181
liwa	-8.42538
▁redio	-8.42575
▁kula	-8.43091
▁huduma	-8.43372
▁mvua	-8.43741
▁vilivyo	-8.43755
▁o	-8.43791
▁vili	-8.43885
ng	-8.43895
▁k	-8.4414
z	-8.44152
▁kikuu	-8.44174
▁kura	-8.44294
sh	-8.4432
mbe	-8.44523
▁usiku	-8.44602
▁waandishi	-8.4479
▁karne	-8.44916
▁kisha	-8.44962
tawala	-8.45243
▁masomo	-8.45339
mbu	-8.45477
▁kutokea	-8.457
▁Wamasai	-8.45706
▁kulingana	-8.45783
tangaza	-8.45963
▁haja	-8.46021
▁Amin	-8.46061
mbi	-8.46103
▁usalama	-8.46104
se	-8.46323
▁li	-8.46415
▁makundi	-8.46537
▁yule	-8.46543
▁mwenyewe	-8.46729
▁Mkoa	-8.47272
▁soka	-8.4738
▁mlima	-8.47395
▁ambacho	-8.47714
▁vinavyo	-8.47867
▁Baba	-8.4798
▁ilivyo	-8.48003
omba	-8.4844
nyo	-8.48449
▁mamlaka	-8.48529
▁shilingi	-8.48529
▁Tanganyika	-8.4853
▁milima	-8.48924
▁mwana	-8.4905
▁al	-8.4926
▁maziwa	-8.49355
▁makuu	-8.4941
▁hiki	-8.49429
▁Ugonjwa	-8.49788
▁bei	-8.49962
▁matokeo	-8.50595
▁kuona	-8.5098
▁Tangu	-8.51064
kata	-8.51255
panda	-8.51299
▁Taifa	-8.51434
▁utalii	-8.51478
▁lilikuwa	-8.51694
▁yalikuwa	-8.51886
▁kile	-8.52205
▁kuanza	-8.52489
hisi	-8.52497
▁baadaye	-8.5257
soma	-8.52976
▁tabia	-8.53109
▁mzuri	-8.53169
▁Kati	-8.53486
▁kaunti	-8.53561
▁Kanisa	-8.53562
▁wazi	-8.53565
▁mauaji	-8.53601
▁imani	-8.53608
▁kikosi	-8.53657
tolewa	-8.53896
▁kuhakikisha	-8.53922
dha	-8.53973
dadi	-8.54436
▁uchafuzi	-8.54482
▁wiki	-8.54862
▁Hi	-8.55056
▁Ya	-8.5517
▁matatizo	-8.55308
▁Mlima	-8.55422
zaliwa	-8.55446
▁yaani	-8.55486
▁ardhi	-8.55721
▁mahakama	-8.55723
▁uongozi	-8.5577
▁simu	-8.56129
kubali	-8.56266
zwa	-8.5649
▁miezi	-8.5662
▁ziwa	-8.56694
▁watalii	-8.56699
▁bali	-8.56776
wezi	-8.56859
▁nime	-8.56923
▁Bi	-8.57345
▁macho	-8.57419
▁jana	-8.57645
▁wakazi	-8.58185
▁Dar	-8.58287
ongezeka	-8.58671
he	-8.58858
▁Waziri	-8.58862
▁Kiingereza	-8.58869
kosa	-8.59039
do	-8.59218
▁mwalimu	-8.59317
▁mdogo	-8.5936
▁ndoa	-8.59678
▁kitaifa	-8.6023
▁mpira	-8.60267
▁chuo	-8.60333
pelekea	-8.60448
faa	-8.60919
▁kuendelea	-8.61135
▁dakika	-8.61154
▁silaha	-8.61157
▁benki	-8.61171
▁mbinu	-8.61185
▁mchezaji	-8.61214
▁mwandishi	-8.61219
▁bunge	-8.61279
▁Hakuna	-8.61302
▁matangazo	-8.61619
▁vyema	-8.61619
A	-8.61667
▁P	-8.61858
▁Mataifa	-8.62086
▁ambavyo	-8.62087
▁kiume	-8.62161
▁F	-8.62185
▁kufikia	-8.62228
pitia	-8.62365
▁yeyote	-8.62556
▁kule	-8.62581
▁homa	-8.62613
▁magonjwa	-8.62668
ua	-8.6273
▁huru	-8.62784
beba	-8.62854
likuwa	-8.62865
▁Yey	-8.63028
ongeza	-8.63142
▁kime	-8.63316
husu	-8.6335
▁Kutokana	-8.63368
▁kulevya	-8.63505
▁s	-8.63551
▁alim	-8.63596
▁kuku	-8.63873
▁mapinduzi	-8.63978
▁wazazi	-8.64235
ndu	-8.64436
▁Ujerumani	-8.64456
▁Karume	-8.64456
▁kinacho	-8.64554
▁wanaume	-8.64562
▁aliyekuwa	-8.64786
▁zilikuwa	-8.64789
▁mapema	-8.64937
sikia	-8.65267
▁ndogo	-8.65442
aji	-8.65491
▁wazee	-8.65919
▁aa	-8.66121
▁Dalili	-8.66394
▁vyakula	-8.66586
▁sekta	-8.66887
▁Wilaya	-8.67376
▁Pa	-8.67442
▁La	-8.67453
▁Ko	-8.6751
shindwa	-8.67609
▁ange	-8.67704
▁wachezaji	-8.67771
▁We	-8.67856
▁zenye	-8.67871
▁Amerika	-8.67872
nzi	-8.67874
▁vifo	-8.67885
▁uhusiano	-8.67923
kwenda	-8.6798
▁Bu	-8.68069
▁kuchukua	-8.68175
▁fursa	-8.68869
▁masuala	-8.68881
▁picha	-8.68891
du	-8.69163
tajwa	-8.69373
▁suala	-8.69374
▁ndipo	-8.69407
▁mpango	-8.69877
▁kote	-8.69938
tegemea	-8.70144
▁mimba	-8.70316
▁Maji	-8.70378
teuliwa	-8.70384
▁gari	-8.70435
▁Sa	-8.70508
▁Nyerere	-8.70894
▁kijiji	-8.71012
fanywa	-8.71245
▁nusu	-8.71417
▁makazi	-8.71564
▁jamhuri	-8.71923
▁changamoto	-8.71958
▁salama	-8.72019
kutana	-8.72063
▁imekuwa	-8.72066
changia	-8.72112
▁zile	-8.72155
▁kupunguza	-8.72226
▁Hifadhi	-8.72441
U	-8.7245
▁wanafunzi	-8.72503
heshimiwa	-8.72656
▁kuongeza	-8.72736
▁hawaku	-8.72817
▁kusababisha	-8.732
ria	-8.73348
dhani	-8.73387
cheza	-8.73481
▁mwanzo	-8.73621
▁alivyo	-8.73672
ia	-8.73732
elezea	-8.73929
▁kulikuwa	-8.73956
▁miti	-8.74202
▁B	-8.74292
taja	-8.74336
▁polisi	-8.74541
▁tatizo	-8.74542
▁jirani	-8.74543
▁Samia	-8.74559
▁mali	-8.74852
▁kuzi	-8.74943
▁ukimwi	-8.75078
▁mapafu	-8.75102
▁mawili	-8.75114
kuwepo	-8.75133
▁jijini	-8.75406
▁maalum	-8.75458
▁kijamii	-8.75632
▁Leo	-8.75669
▁wageni	-8.75691
▁kuelekea	-8.75699
▁waliokuwa	-8.76055
▁chochote	-8.76145
▁kasi	-8.762
▁bu	-8.76416
▁pep	-8.76468
▁unga	-8.76651
▁heshima	-8.76685
▁Mombasa	-8.76686
▁Urusi	-8.76686
▁ushirikiano	-8.76687
▁kurudi	-8.77017
▁lenye	-8.7712
▁mila	-8.77493
kuta	-8.77626
▁Wakristo	-8.77775
▁mazungumzo	-8.77775
▁kijana	-8.77776
▁miwili	-8.77794
jenga	-8.77805
lenga	-8.77829
▁kwao	-8.77915
funga	-8.77939
kia	-8.78033
▁usi	-8.78148
ili	-8.78289
▁kiuchumi	-8.7834
▁mashamba	-8.78347
angalia	-8.78353
▁shuleni	-8.78571
▁Chama	-8.78611
safiri	-8.78642
▁mkoani	-8.78664
▁baridi	-8.78877
▁ulaya	-8.7888
▁maafisa	-8.78927
▁Nchi	-8.79035
▁asi	-8.79221
▁walipo	-8.79338
▁zetu	-8.79434
shiriki	-8.79446
▁wingi	-8.7945
▁kutosha	-8.79509
▁kichwa	-8.79537
▁kisiwa	-8.79621
tumiwa	-8.79667
pigwa	-8.7985
▁Wajerumani	-8.79991
▁mikoa	-8.79997
▁Pamoja	-8.80003
▁tuli	-8.80006
▁kisasa	-8.80029
▁miji	-8.80063
jumbe	-8.80445
▁Kaskazini	-8.80572
▁Dunia	-8.80636
▁iliyopita	-8.80659
▁mno	-8.8075
fahamu	-8.80791
▁kumu	-8.80969
▁mzee	-8.81119
▁nyota	-8.81119
▁Mji	-8.81146
mia	-8.81194
▁kambi	-8.81201
▁nyama	-8.81451
▁watumwa	-8.81474
▁nomino	-8.81686
▁kuweza	-8.81799
▁michezo	-8.82303
▁ukubwa	-8.82311
▁kucheza	-8.82498
ende	-8.82613
▁kilomita	-8.82832
▁Muungano	-8.82836
▁Tuna	-8.82858
M	-8.82934
▁mke	-8.82937
paswa	-8.83098
kumbuka	-8.83224
▁kuweka	-8.83262
▁kuni	-8.83436
▁kuondoka	-8.83454
▁kutafuta	-8.83558
▁mtafiti	-8.83585
▁barani	-8.83631
▁mbwa	-8.83762
▁Uki	-8.83784
▁Jamuhuri	-8.83994
▁Mimi	-8.84172
husika	-8.84293
▁Ziwa	-8.84344
▁po	-8.8439
▁Sehemu	-8.84577
▁Yesu	-8.84577
▁baina	-8.84579
▁mafanikio	-8.8459
▁lengo	-8.84597
one	-8.84679
▁Al	-8.8474
undwa	-8.8474
▁Chuo	-8.84749
ongozwa	-8.84888
▁majina	-8.84907
husisha	-8.84991
▁wachache	-8.85168
tambua	-8.85175
▁Magharibi	-8.85185
▁joto	-8.85207
▁upinzani	-8.85208
I	-8.85259
▁tuzo	-8.85325
▁Vita	-8.85374
▁kujenga	-8.85382
mpa	-8.8551
▁kutengeneza	-8.85612
jengwa	-8.85625
▁gharama	-8.85757
▁rahisi	-8.85768
▁nayo	-8.8581
▁kupiga	-8.85864
▁vime	-8.8597
tamani	-8.86219
shika	-8.86313
▁msaada	-8.86352
▁wasiwasi	-8.86352
poteza	-8.86782
takuwa	-8.86889
▁kulinda	-8.86897
▁ukweli	-8.86951
tafuta	-8.87289
▁ujumla	-8.87553
▁alipata	-8.87995
▁Sauti	-8.88164
▁sherehe	-8.88164
▁mashambulizi	-8.88174
▁athari	-8.88196
▁kesi	-8.88242
jumuisha	-8.88259
tuma	-8.88275
▁Utafiti	-8.88307
▁anasema	-8.88406
ahidi	-8.88755
▁badala	-8.88769
▁maswali	-8.88769
▁kampuni	-8.88773
nia	-8.88804
▁vifaa	-8.88863
▁ulimwengu	-8.88949
▁d	-8.8902
ondoa	-8.89169
▁kufika	-8.89454
▁mita	-8.89521
▁Su	-8.89605
▁Ja	-8.8989
kiwa	-8.8997
▁Kab	-8.90001
▁uingereza	-8.90025
▁akili	-8.90174
▁mchakato	-8.90621
▁juhudi	-8.90623
chukuliwa	-8.90625
▁ingawa	-8.90626
▁mtazamo	-8.90658
▁wahusika	-8.90687
kula	-8.90828
▁anapo	-8.9107
kwe	-8.91207
▁furaha	-8.91246
▁bwana	-8.91247
▁kenya	-8.91278
▁mkataba	-8.91286
▁uwanja	-8.9142
▁Hapo	-8.91439
thi	-8.91458
▁kukabiliana	-8.91537
▁risasi	-8.91875
▁nyimbo	-8.91875
▁bilioni	-8.91877
▁umuhimu	-8.91905
▁chache	-8.91948
dhibiti	-8.92004
▁haiku	-8.92162
nyi	-8.92167
▁Una	-8.92314
hama	-8.92351
▁Hassan	-8.92511
▁nguo	-8.92513
▁C	-8.92605
▁Zi	-8.92998
elekea	-8.93046
sta	-8.93094
▁ndugu	-8.93096
▁asubuhi	-8.93164
▁mazuri	-8.93187
▁barabara	-8.93345
▁kutu	-8.9335
▁rafiki	-8.93791
▁ripoti	-8.93924
▁tukio	-8.94087
zungumza	-8.94202
▁siri	-8.94231
▁wamekuwa	-8.94292
andika	-8.94318
▁michuano	-8.94431
▁thamani	-8.94431
▁harakati	-8.94684
▁Je	-8.94724
▁mwilini	-8.94727
▁kujua	-8.94769
▁kamili	-8.94829
pinga	-8.9492
▁samaki	-8.9508
▁Bahari	-8.95088
▁Mnyam	-8.95348
w	-8.9566
▁kuta	-8.95663
▁fainali	-8.95734
▁mawasiliano	-8.95734
▁jioni	-8.95741
▁Tuli	-8.95834
▁niki	-8.95927
▁halmashauri	-8.96392
▁misitu	-8.96392
▁jimbo	-8.96415
▁kiswahili	-8.96425
fanana	-8.96456
▁kuleta	-8.97394
imba	-8.97401
▁kupika	-8.97479
▁katikati	-8.97655
▁kesho	-8.97739
▁Sasa	-8.97841
▁Mwa	-8.97893
▁ko	-8.98123
nja	-8.98144
sahau	-8.98179
unga	-8.98213
▁hakuwa	-8.98399
simama	-8.98437
▁nina	-8.98528
▁ziki	-8.98546
▁kituo	-8.9863
▁yale	-8.98934
▁Somalia	-8.99067
husiana	-8.99071
▁kumaliza	-8.99074
▁Kulingana	-8.99095
▁mtakatifu	-8.99131
▁akawa	-8.99316
▁vitabu	-8.99356
▁laki	-8.99483
▁shida	-8.99762
zuia	-8.99978
▁msitu	-8.9998
fanikiwa	-9.0005
▁Amba	-9.00229
sia	-9.00308
▁muundo	-9.00433
▁vivutio	-9.00433
▁ambako	-9.00434
▁mapenzi	-9.00464
▁uamuzi	-9.00495
▁Mtoto	-9.00599
O	-9.00678
▁Nina	-9.00693
wezesha	-9.00729
▁D	-9.00814
▁huenda	-9.00925
▁kupanda	-9.00996
▁Waka	-9.01031
▁ubora	-9.01123
▁marekani	-9.01217
ry	-9.01241
ambia	-9.01343
▁huweza	-9.01404
▁aliyo	-9.01552
ondoka	-9.01723
▁bandari	-9.01817
▁vokali	-9.01817
▁nadharia	-9.01818
▁Bwana	-9.01821
▁Benki	-9.0184
▁mfupi	-9.01858
▁kigeni	-9.01915
▁hutokea	-9.02046
nye	-9.02217
hitajika	-9.02241
▁vyama	-9.02415
tazama	-9.02457
▁sahihi	-9.02516
▁urais	-9.02524
▁hofu	-9.02577
▁ujumbe	-9.02838
peleka	-9.02972
▁karibuni	-9.03025
jitokeza	-9.03159
elewa	-9.03163
▁Kenyatta	-9.0322
▁Watoto	-9.03282
zu	-9.03312
▁Asia	-9.03319
ve	-9.03665
▁nita	-9.03683
▁je	-9.03791
ibu	-9.03841
▁jukumu	-9.03931
▁muungano	-9.03937
▁mujibu	-9.03978
▁urefu	-9.04015
▁vingine	-9.04017
▁kuja	-9.04042
▁jinsia	-9.04148
tafiti	-9.04383
lala	-9.04428
vo	-9.04472
wekwa	-9.04536
▁bi	-9.04548
▁marufuku	-9.04644
▁matukio	-9.04644
▁ajabu	-9.04644
▁wanachama	-9.04711
▁kimoja	-9.04721
▁,	-9.04981
▁kuki	-9.04989
ongea	-9.05099
▁aliwa	-9.0514
ch	-9.05781
▁jiji	-9.05792
▁wasio	-9.05873
▁tuta	-9.05883
▁kufa	-9.05938
▁hau	-9.05968
▁alianza	-9.06034
▁Uhuru	-9.06088
▁mchezo	-9.06088
▁daraja	-9.06088
▁magari	-9.06089
▁matibabu	-9.06126
▁alama	-9.06157
an	-9.06186
▁mitatu	-9.06243
th	-9.06245
▁Mwana	-9.0627
j	-9.06333
▁Simba	-9.06335
jaa	-9.06577
▁Lu	-9.06762
▁Pe	-9.06802
▁Kilimanjaro	-9.06818
▁teknolojia	-9.06818
▁Mwalimu	-9.06818
▁ndefu	-9.06819
▁vyote	-9.0682
▁mazao	-9.06821
▁madini	-9.06822
▁Lugha	-9.06833
▁maudhui	-9.06852
▁katiba	-9.06959
is	-9.0699
▁Kuu	-9.07049
isha	-9.07057
▁nika	-9.07208
▁wanapo	-9.07301
kosi	-9.0736
▁kusoma	-9.07369
▁Ru	-9.07376
▁So	-9.07551
▁Mto	-9.07563
▁bonde	-9.07573
▁mnamo	-9.07574
▁kusaidia	-9.07678
▁upo	-9.07735
▁wenyeji	-9.07935
maliza	-9.07999
▁be	-9.08054
▁ujenzi	-9.08294
▁ukopaji	-9.08294
▁Jumuiya	-9.08305
▁wagonjwa	-9.08317
▁askari	-9.08339
▁umma	-9.08346
tarajiwa	-9.08368
▁licha	-9.0841
man	-9.08523
▁lile	-9.0853
▁kushiriki	-9.08537
hali	-9.08537
▁madarakani	-9.08589
▁Ilikuwa	-9.08626
▁He	-9.08688
▁desturi	-9.09042
▁iwapo	-9.09043
▁mbuzi	-9.09129
▁anga	-9.09676
▁kanuni	-9.09793
▁g	-9.09805
▁majani	-9.09973
vutia	-9.09974
tembelea	-9.09986
▁msimu	-9.09988
fungwa	-9.10046
mfanya	-9.10077
▁da	-9.10079
▁chanzo	-9.10085
semaji	-9.10228
▁kilikuwa	-9.10251
▁f	-9.10334
▁zinaweza	-9.10371
▁husababisha	-9.10412
andaa	-9.10434
▁hana	-9.105
unda	-9.10543
▁mwanamume	-9.10581
onesha	-9.10586
▁mada	-9.10596
nd	-9.10707
▁b	-9.11166
▁halisi	-9.11298
▁Kigiryama	-9.11313
▁Salaam	-9.11313
▁Mkwawa	-9.11316
▁Jeshi	-9.11377
▁binafsi	-9.1139
andikwa	-9.1141
▁baraza	-9.11477
▁mikono	-9.11651
jibu	-9.11794
▁kushinda	-9.11916
▁mlango	-9.12083
▁ipo	-9.12138
tembea	-9.12206
▁data	-9.12208
▁Mia	-9.12243
▁Jina	-9.12268
▁Haku	-9.12359
▁hi	-9.12362
▁wadogo	-9.12371
▁Usi	-9.12838
▁sentensi	-9.1286
gundua	-9.12861
▁mawazo	-9.12861
kataa	-9.12863
▁vituo	-9.12971
chunguza	-9.13158
▁Bara	-9.13238
maanisha	-9.134
▁we	-9.13438
panga	-9.13524
jali	-9.1355
▁nyerere	-9.13638
▁ushindi	-9.13711
▁wapo	-9.13754
▁maoni	-9.13804
shauri	-9.13971
gwa	-9.14035
▁husika	-9.14245
▁Se	-9.14287
▁labda	-9.14427
▁ajali	-9.14589
moja	-9.14665
▁kushindwa	-9.14827
▁wakulima	-9.14849
▁kusahau	-9.15029
athirika	-9.151
▁safi	-9.15189
▁nukta	-9.15219
▁Utenzi	-9.1522
▁abiria	-9.1522
▁afisa	-9.1522
karibia	-9.15225
▁mabao	-9.15226
▁nzima	-9.15239
▁kando	-9.15357
▁malipo	-9.15386
▁mojawapo	-9.15388
er	-9.15388
▁va	-9.15402
▁Nya	-9.15555
▁j	-9.15612
shambulia	-9.15634
mani	-9.15958
▁petroli	-9.16019
mw	-9.16082
▁Alipo	-9.16143
▁uchunguzi	-9.16185
vaa	-9.162
keti	-9.16225
on	-9.16428
▁iliyokuwa	-9.16637
▁kiti	-9.16709
E	-9.16785
▁John	-9.16826
▁Bo	-9.16826
▁Shirika	-9.16826
▁Ingawa	-9.16828
▁faida	-9.16829
▁salaam	-9.16829
▁klabu	-9.1683
▁taasisi	-9.16836
▁mchanganyiko	-9.16842
▁Milima	-9.16854
▁yaki	-9.16877
sisitiza	-9.16878
▁msichana	-9.16893
▁kuzuia	-9.16901
▁uko	-9.17138
ongo	-9.17281
▁shamba	-9.17335
▁yanaweza	-9.17338
▁kondoo	-9.17639
▁viwanda	-9.1764
▁maumivu	-9.1767
▁Arusha	-9.17675
▁isiyo	-9.17687
id	-9.17832
▁madhara	-9.17843
▁Huku	-9.18002
▁kuonyesha	-9.18093
▁toka	-9.18145
▁alipokuwa	-9.18235
lea	-9.18427
▁se	-9.18451
▁titanic	-9.18459
▁mipaka	-9.18484
▁mwingi	-9.18525
▁mawe	-9.18577
fikiri	-9.18657
anzisha	-9.18693
▁dar	-9.18715
N	-9.18765
badilisha	-9.1878
badilika	-9.18781
sababishwa	-9.19093
anzishwa	-9.19153
▁Magufuli	-9.19285
▁ghafla	-9.19285
▁Kiislamu	-9.19337
▁kitabu	-9.19338
jiri	-9.19343
▁maalumu	-9.19557
▁makao	-9.19583
pate	-9.19873
▁dhahabu	-9.20118
▁Kikuu	-9.20205
kufa	-9.20246
▁kuwepo	-9.20371
▁de	-9.20441
▁sisi	-9.20513
▁kujiunga	-9.20798
▁kuanzisha	-9.20875
▁umeme	-9.2095
▁zingine	-9.20959
▁Me	-9.20968
▁utaratibu	-9.20969
▁makala	-9.21071
▁kukaa	-9.212
▁watatu	-9.21247
ck	-9.21309
el	-9.2133
▁lita	-9.21388
zungu	-9.21395
▁simba	-9.21508
us	-9.21572
▁alizaliwa	-9.21577
▁Hasa	-9.21582
▁ulimwenguni	-9.21583
▁Mtu	-9.21585
▁liki	-9.2165
shia	-9.21778
▁wizara	-9.21806
▁Jamii	-9.21807
▁dhana	-9.21926
subiri	-9.21943
▁G	-9.21946
▁mzima	-9.21954
▁raisi	-9.22031
ruhusu	-9.22104
▁wanasema	-9.22129
▁mtandao	-9.22202
▁kuongoza	-9.22234
▁chumba	-9.22239
enea	-9.22307
▁pande	-9.22319
tumwa	-9.2247
▁usafiri	-9.2256
▁kutembea	-9.22633
▁Halmashauri	-9.22661
▁wenzake	-9.22661
▁Kiarabu	-9.22661
▁Baraza	-9.2274
▁Waislamu	-9.2275
dhihirisha	-9.22829
▁tuka	-9.22844
aga	-9.22859
▁Tanga	-9.22941
▁baharini	-9.22953
▁visiwa	-9.23071
▁mito	-9.23224
twa	-9.23301
▁kutembelea	-9.23515
▁Demokrasia	-9.23523
▁majukumu	-9.23523
▁majeshi	-9.23523
▁Mzee	-9.23525
▁Kazi	-9.23561
rejea	-9.2364
▁am	-9.23678
▁shaka	-9.23699
ngwa	-9.2372
▁baadae	-9.23753
▁kupe	-9.23764
fundisha	-9.23788
▁kuimarisha	-9.23812
▁ukoo	-9.23948
▁Mambo	-9.23979
▁utu	-9.24378
▁Serengeti	-9.24393
▁operesheni	-9.24393
▁orodha	-9.24393
wakilisha	-9.24408
▁vikosi	-9.24477
▁isi	-9.24678
hamia	-9.24715
uma	-9.24751
▁hazi	-9.24804
▁mahitaji	-9.24888
shughulikia	-9.24972
dhaa	-9.25013
pungua	-9.25042
▁hutumika	-9.25153
▁kihistoria	-9.2527
faulu	-9.25272
▁Sheria	-9.25275
▁mifumo	-9.25296
▁umbo	-9.25383
▁lika	-9.254
vamia	-9.2551
▁sera	-9.2551
▁ja	-9.25535
▁uso	-9.25539
pigania	-9.25857
athiri	-9.25902
▁t	-9.26009
fe	-9.26032
▁Wengi	-9.26149
▁guardiola	-9.26155
▁ndigana	-9.26155
▁sukari	-9.26155
▁sarafu	-9.26155
▁roho	-9.26155
▁madai	-9.26183
▁Ufaransa	-9.2619
▁kwetu	-9.26195
▁Hadi	-9.26309
hakikisha	-9.26488
▁wataalamu	-9.2649
▁hawana	-9.26608
▁ini	-9.26755
▁fasihi	-9.27052
▁Tausi	-9.27061
▁mashindano	-9.27079
▁kauli	-9.27087
▁wakubwa	-9.27124
▁namba	-9.27142
▁Uta	-9.27206
nt	-9.27206
pande	-9.27219
▁kita	-9.27256
▁Ke	-9.27297
▁Baadaye	-9.27316
▁bahati	-9.27446
▁ofisi	-9.27493
▁waliyo	-9.27544
ce	-9.2774
stahili	-9.27949
▁Saudi	-9.27949
▁viumbe	-9.27949
▁lahaja	-9.27951
▁kinyume	-9.27983
▁mimea	-9.28012
▁mgonjwa	-9.28015
angazia	-9.28047
▁Bila	-9.28233
endesha	-9.28262
▁kima	-9.28302
yu	-9.28444
▁jua	-9.28674
gh	-9.28681
▁Tume	-9.28687
▁lolote	-9.28858
▁zoezi	-9.28858
▁Mfano	-9.28858
▁ngumu	-9.28859
▁mraba	-9.28861
▁Jambo	-9.28911
▁Ra	-9.28956
▁ukoloni	-9.28956
changanya	-9.28976
▁wadudu	-9.28993
▁kizazi	-9.29012
▁alifanya	-9.29204
▁kupambana	-9.29232
uza	-9.29286
▁Machi	-9.29294
▁hospitali	-9.2932
▁Kundi	-9.29352
aeneo	-9.29571
▁zangu	-9.29636
en	-9.29707
▁Aki	-9.29738
tengenezwa	-9.29759
▁wowote	-9.29775
▁viwango	-9.29779
▁wapiganaji	-9.29779
▁dada	-9.29789
▁mipango	-9.29806
▁Lulu	-9.29817
▁mafunzo	-9.29818
▁wapi	-9.29978
▁mingine	-9.3003
▁Ikiwa	-9.30041
son	-9.30234
▁tuki	-9.30344
▁peke	-9.30634
▁nyeusi	-9.30701
▁ujerumani	-9.30701
▁halafu	-9.30701
▁Nyumba	-9.30706
▁Bibi	-9.3081
unganisha	-9.30812
▁kanda	-9.3083
tenga	-9.30945
miliki	-9.31203
▁Waki	-9.31544
▁Uturuki	-9.31635
▁swala	-9.31637
▁ukiwa	-9.31793
▁Mo	-9.31983
▁kimeta	-9.32064
▁kuunda	-9.32137
mbia	-9.32161
anguka	-9.32234
▁mwishoni	-9.32252
▁wanaishi	-9.32508
tha	-9.32565
ruhusiwa	-9.32579
▁Zaidi	-9.32584
▁uhai	-9.32588
lipa	-9.32612
▁awamu	-9.32619
▁ligi	-9.32639
nza	-9.32707
▁Hapa	-9.3273
▁binti	-9.3275
▁bo	-9.32756
▁ulinzi	-9.32808
▁To	-9.33067
▁ilianza	-9.33209
▁Nime	-9.3325
ibuka	-9.33322
▁Hawa	-9.33379
pokuwa	-9.33499
▁udongo	-9.33532
▁sura	-9.33534
oni	-9.33541
▁vitendo	-9.33548
▁shambulizi	-9.33594
fahamika	-9.33595
▁tiba	-9.33605
▁inavyo	-9.33636
st	-9.33712
▁kusafiri	-9.33905
jo	-9.33964
▁mwake	-9.3397
▁kamati	-9.34162
▁Be	-9.34255
▁kinga	-9.34316
anzia	-9.34475
▁hupatikana	-9.34478
▁ubingwa	-9.34493
▁Uchumi	-9.34493
▁viungo	-9.34493
▁Eneo	-9.34494
▁matunda	-9.34494
pendwa	-9.34494
▁tamaduni	-9.34494
▁wito	-9.34495
▁barua	-9.34495
▁kocha	-9.34539
ca	-9.34619
pelekwa	-9.34827
▁siyo	-9.34987
▁alii	-9.35015
▁wanaoishi	-9.35099
▁mo	-9.35132
▁soko	-9.35145
▁kuzaliwa	-9.35177
▁wafuasi	-9.35322
inua	-9.35358
▁maswala	-9.35464
▁Mwanamke	-9.35464
▁mapya	-9.35464
▁vibaya	-9.35464
▁gazeti	-9.35466
▁mechi	-9.35485
▁mwanadamu	-9.35493
▁mkulima	-9.35571
▁uganda	-9.35657
▁ushauri	-9.35783
tosha	-9.35805
▁Sudan	-9.35814
tetea	-9.35935
geni	-9.3596
▁Kisha	-9.3599
▁kanisa	-9.36066
▁kudhibiti	-9.36088
▁mti	-9.36115
▁koo	-9.36301
▁konsonanti	-9.36444
▁vilevile	-9.36444
▁bidii	-9.36446
▁imara	-9.36446
▁usawa	-9.36455
▁vipindi	-9.36463
▁hisia	-9.36467
▁demokrasia	-9.36491
▁mapato	-9.36563
▁Ji	-9.36669
tengeneza	-9.36776
▁kuangalia	-9.36797
▁haija	-9.36987
▁hasi	-9.37039
tupa	-9.37068
▁Jo	-9.37287
▁ajira	-9.37441
ogopa	-9.37457
▁maelezo	-9.37502
▁ikiwemo	-9.37508
▁methali	-9.37523
▁utajiri	-9.37552
▁aliendelea	-9.37562
tarajia	-9.37599
▁kata	-9.37599
▁mkewe	-9.37631
▁tajiri	-9.37658
endeleza	-9.37683
▁Da	-9.37685
▁p	-9.37757
▁alio	-9.37876
S	-9.37941
fungua	-9.37955
▁Te	-9.38194
uliza	-9.38204
wasili	-9.38236
▁Nairobi	-9.38434
▁brazil	-9.38434
▁maandamano	-9.38434
▁Waturuki	-9.38435
▁malaria	-9.38435
▁umbali	-9.38542
▁matatu	-9.38603
▁ufa	-9.38614
▁makali	-9.38719
▁wanamgambo	-9.38764
▁vyao	-9.39044
fanyia	-9.39051
▁kukosa	-9.39107
nywa	-9.39379
kimbia	-9.39424
▁Waorthodoksi	-9.39444
▁filamu	-9.39444
▁taratibu	-9.39452
▁Habari	-9.39459
▁mikubwa	-9.39472
ashiria	-9.39495
▁maamuzi	-9.39503
▁uliopita	-9.39546
▁mfalme	-9.39555
▁chanjo	-9.39592
▁kumw	-9.39599
▁maka	-9.39606
▁wasichana	-9.39617
▁sha	-9.3977
▁di	-9.39854
mekuwa	-9.3987
▁pembe	-9.40026
wapa	-9.40032
▁Ju	-9.4006
▁Yu	-9.40464
▁watanzania	-9.40465
▁nywele	-9.40465
husishwa	-9.40468
▁Pwani	-9.40469
▁Waingereza	-9.40497
▁ndoto	-9.4053
▁asiye	-9.40554
▁Maisha	-9.40644
▁aliji	-9.40656
▁uwepo	-9.4071
▁kiu	-9.4082
▁mhusika	-9.40841
▁yenyewe	-9.40925
jiunga	-9.40934
▁haikuwa	-9.4095
▁kujifunza	-9.4114
dumu	-9.41166
▁nilikuwa	-9.4122
▁kipekee	-9.41496
▁uhalifu	-9.41496
▁wimbo	-9.41496
▁pengine	-9.41503
▁ke	-9.41504
▁ngoma	-9.41571
▁chuma	-9.41579
fiki	-9.41635
▁kuzungumza	-9.41657
linda	-9.41705
▁ukanda	-9.41803
▁zita	-9.41848
swa	-9.41853
▁ee	-9.41931
ll	-9.42035
shirikiana	-9.42119
▁kutumika	-9.42121
▁bin	-9.422
tunza	-9.42273
H	-9.42377
bwa	-9.42443
▁kupokea	-9.42498
▁Ukraine	-9.42537
▁mahojiano	-9.42537
▁misingi	-9.42538
▁ngazi	-9.42546
▁midomo	-9.42556
▁maelfu	-9.42576
▁Dola	-9.42623
lisha	-9.42642
▁majengo	-9.42653
▁huitwa	-9.42675
▁iwe	-9.42696
▁langu	-9.42931
athiriwa	-9.42954
▁madawa	-9.43073
▁kununua	-9.43151
▁vyake	-9.43241
▁mta	-9.43248
▁Mwezi	-9.4326
▁Ga	-9.43297
▁kudumu	-9.43302
achwa	-9.43339
▁lu	-9.43487
▁Mapinduzi	-9.4359
▁Vijana	-9.43591
▁ngamia	-9.43591
▁ilipo	-9.43612
▁Wapare	-9.4364
▁te	-9.43724
co	-9.43744
▁fa	-9.43817
▁hadithi	-9.43868
▁kaka	-9.44042
hakiki	-9.44149
mwa	-9.44205
Mnamo	-9.44367
▁hupata	-9.44554
▁usafi	-9.44624
bisha	-9.44642
dhihirika	-9.44654
▁Maendeleo	-9.44654
▁sekondari	-9.44654
▁vyenye	-9.44654
▁Jumapili	-9.44654
▁bayana	-9.44655
▁kumbukumbu	-9.44656
▁Mashaka	-9.44657
▁chenye	-9.44663
▁Mwinyi	-9.44663
▁hawaja	-9.44665
▁mwendo	-9.44673
▁wanne	-9.44679
▁pombe	-9.44701
▁mahusiano	-9.44726
▁hasira	-9.44807
rudisha	-9.4503
weze	-9.45031
▁makosa	-9.45048
ani	-9.45206
umba	-9.4527
K	-9.45279
elezwa	-9.45301
▁Asilimi	-9.45642
ini	-9.45682
yi	-9.45692
▁Bagamoyo	-9.45729
▁Historia	-9.45729
▁jumuiya	-9.45729
▁kitenzi	-9.45729
▁sudan	-9.45729
▁wafanyakazi	-9.45732
▁ishara	-9.45761
▁aliweza	-9.45832
▁ikawa	-9.45884
▁Roma	-9.45939
▁utumwa	-9.46056
ambiwa	-9.46094
▁kirai	-9.46298
▁kuambukizwa	-9.46301
simamia	-9.46373
▁anavyo	-9.46495
▁kuendeleza	-9.46544
▁Chi	-9.46548
tenda	-9.46573
▁Kigiriama	-9.46816
▁Waarabu	-9.46816
▁mchango	-9.46817
▁malengo	-9.46817
▁kisukari	-9.46819
▁wastani	-9.46843
▁msikilizaji	-9.46888
▁harusi	-9.46917
▁kulia	-9.46967
kadiriwa	-9.47098
▁cheo	-9.47119
gawa	-9.47167
bidi	-9.47392
▁kutaka	-9.47426
▁fu	-9.47542
kusanya	-9.47637
zingatia	-9.47661
fikiria	-9.47676
twaa	-9.47693
▁Go	-9.47715
kuu	-9.47737
olewa	-9.47831
▁nyeupe	-9.47915
▁ukosefu	-9.47915
▁Kampala	-9.47915
▁ushahidi	-9.47915
▁utenzi	-9.47921
▁ufaransa	-9.47979
▁vitamini	-9.47994
▁wasi	-9.4803
▁kuua	-9.4811
▁wakoloni	-9.48194
tangazwa	-9.48256
mbwa	-9.48274
▁kim	-9.4833
potea	-9.48349
▁itakuwa	-9.48407
▁to	-9.48422
kubaliana	-9.48542
▁Akiwa	-9.48543
olojia	-9.48637
nzo	-9.48728
ishia	-9.48775
teka	-9.48844
▁aliamua	-9.48855
▁zika	-9.48889
mea	-9.48945
▁watano	-9.49004
▁sayansi	-9.49026
▁tamthilia	-9.49026
▁mfululizo	-9.49026
▁kivutio	-9.49028
▁ndivyo	-9.49047
▁Januari	-9.49056
▁umaarufu	-9.49077
▁Sha	-9.49095
geuka	-9.49169
▁tawala	-9.4917
▁ra	-9.49173
▁Kitu	-9.49218
onya	-9.49287
kiwemo	-9.49458
zaa	-9.49481
▁mtaa	-9.49508
lima	-9.49531
vunja	-9.4955
▁ho	-9.49669
fanye	-9.49756
▁amekuwa	-9.49757
▁so	-9.49785
bara	-9.49854
ton	-9.49941
v	-9.4997
ondo	-9.50019
▁wavulana	-9.50093
▁kuvutia	-9.5014
▁Waafrika	-9.5015
▁mikutano	-9.5015
▁Kagera	-9.5015
▁kimbari	-9.50156
▁kichaa	-9.50161
▁Makao	-9.50163
▁hatimaye	-9.5017
▁utulivu	-9.50183
▁njaa	-9.50202
▁mkali	-9.503
▁kuandika	-9.5033
▁Kuwa	-9.50457
shuhudia	-9.50525
▁kutekeleza	-9.50598
▁do	-9.5063
▁Kutoka	-9.50633
▁hutumia	-9.507
hudumu	-9.50773
▁madaraka	-9.5084
▁kuonekana	-9.51117
▁kutangaza	-9.51142
▁Polisi	-9.51286
▁mizigo	-9.51287
▁Aidha	-9.51287
▁ukuaji	-9.51289
▁Nigeria	-9.51291
▁Ri	-9.51321
▁mwanachama	-9.51342
▁kikundi	-9.51361
▁madogo	-9.51372
zungumzia	-9.51384
▁hakika	-9.51599
▁mwanawe	-9.51603
▁kufu	-9.51857
es	-9.52183
▁haina	-9.5219
▁japo	-9.52326
ran	-9.52385
▁Ukristo	-9.52435
▁maslahi	-9.52435
▁Misri	-9.52437
▁Wanawake	-9.52437
▁kiumbe	-9.52466
▁Isaka	-9.52472
▁yasiyo	-9.52473
pele	-9.52475
▁upungufu	-9.52506
▁bibi	-9.52506
chaguliwa	-9.52518
▁mumewe	-9.52548
▁marafiki	-9.52558
shtakiwa	-9.52586
pangwa	-9.52643
▁China	-9.52688
▁awe	-9.52734
▁an	-9.52807
▁mume	-9.52946
uka	-9.52985
jifunza	-9.53101
zunguka	-9.53116
▁anatakiwa	-9.53159
hara	-9.53365
▁kuvi	-9.53429
▁kijijini	-9.53462
▁Arabia	-9.53598
▁minne	-9.53599
▁uvuvi	-9.53621
baini	-9.53642
▁mapigano	-9.53658
▁walianza	-9.53714
▁kosa	-9.53751
▁Kuanzia	-9.53792
▁kuondoa	-9.53855
▁Za	-9.5393
▁maradhi	-9.53969
ama	-9.54076
▁ju	-9.54117
▁kazini	-9.54191
▁chanya	-9.54228
▁H	-9.54277
kazi	-9.54329
▁kukimbia	-9.54486
▁ji	-9.54591
▁jo	-9.54677
▁kupita	-9.54746
▁Takriban	-9.54775
▁bunduki	-9.54775
▁chumvi	-9.54775
▁Afya	-9.54775
▁ibada	-9.54775
▁wanyamapori	-9.54776
▁mchana	-9.54779
▁shahada	-9.5478
▁chombo	-9.54802
▁ziara	-9.54805
▁Wengine	-9.5486
▁upendo	-9.549
▁Unaweza	-9.54934
▁Kwanza	-9.54938
▁kulipa	-9.54942
▁kukua	-9.54987
pika	-9.55268
▁ndo	-9.55276
▁jadi	-9.55529
▁kuongezeka	-9.55537
▁hutoa	-9.55617
▁kunywa	-9.55788
▁unapo	-9.55892
▁Daktari	-9.55965
▁uhakika	-9.55965
▁mashtaka	-9.55965
▁kupikia	-9.55966
jitahidi	-9.55967
▁kidini	-9.5597
▁sumu	-9.55977
▁mwenyeji	-9.56103
badili	-9.56123
▁Sultani	-9.56132
ele	-9.562
pendeza	-9.56454
zia	-9.56486
shuka	-9.56591
▁Fa	-9.56672
ngali	-9.56691
▁nilipo	-9.56732
▁kuzingatia	-9.56785
fanyi	-9.5694
ano	-9.56952
zoea	-9.57046
▁kufuata	-9.57076
zazi	-9.57094
▁wajibu	-9.5712
▁njema	-9.57159
▁Kwenye	-9.5717
▁mwenyekiti	-9.57171
▁upya	-9.57172
▁matembele	-9.5724
agonjwa	-9.5725
▁Wakatoliki	-9.57279
▁kupewa	-9.5735
▁Miaka	-9.57491
engine	-9.57759
▁chumbani	-9.57814
▁hufanya	-9.57967
nyu	-9.58261
▁Aprili	-9.58389
▁kampeni	-9.58389
▁nyekundu	-9.58389
▁Kiafrika	-9.58389
tathmini	-9.5839
▁hoteli	-9.5839
▁hawezi	-9.58481
▁Bunge	-9.58535
▁Asili	-9.58579
nane	-9.58611
▁Haya	-9.58651
salia	-9.5876
▁Amani	-9.58815
▁Huu	-9.59102
sukuma	-9.59171
B	-9.59176
▁mdomo	-9.59234
tisha	-9.59252
▁Iran	-9.59277
fariki	-9.59462
▁Katoliki	-9.59624
▁Ngorongoro	-9.59624
▁Washington	-9.59624
▁Safari	-9.59624
▁Wanajeshi	-9.59624
▁Wizara	-9.59624
▁ufugaji	-9.59624
▁kilometa	-9.59625
▁vishazi	-9.59626
▁kuongea	-9.59675
amuhuri	-9.59682
▁Chakula	-9.59686
▁Hindi	-9.59699
▁china	-9.5972
▁Uislamu	-9.5974
▁kongo	-9.59876
▁ongezek	-9.60022
tua	-9.60037
furahi	-9.60094
▁darasa	-9.60417
▁hatu	-9.60453
▁kutetea	-9.6058
toke	-9.60599
letwa	-9.60821
▁walivyo	-9.60845
▁hadhi	-9.60853
▁Ndege	-9.60874
▁mashuhuri	-9.60874
▁mawaziri	-9.60874
▁bajeti	-9.60874
▁uzalishaji	-9.60874
▁Mandela	-9.60875
▁Kwani	-9.60875
▁kadhalika	-9.60878
shikilia	-9.60906
▁mtihani	-9.60911
▁rekodi	-9.61009
▁mba	-9.61135
▁enzi	-9.61162
▁Hatua	-9.61295
▁kukuza	-9.61451
▁Wi	-9.61623
▁Ho	-9.61645
D	-9.61702
punguza	-9.61916
tengwa	-9.61948
▁pana	-9.6211
▁Salma	-9.6214
▁madhehebu	-9.62152
▁nafsi	-9.62161
▁Uli	-9.62165
▁Ngombe	-9.62168
▁ga	-9.62178
▁mapambano	-9.62179
▁mpenzi	-9.62216
ara	-9.62248
▁uzito	-9.62285
▁yu	-9.62383
▁Jiji	-9.62429
x	-9.62488
▁Wame	-9.6256
pakana	-9.62562
thibitisha	-9.62892
pati	-9.62934
nunua	-9.62939
▁wapinzani	-9.63215
nene	-9.63288
ngwe	-9.63316
▁Chris	-9.63419
▁Joseph	-9.63422
lazimika	-9.63422
▁Mamlak	-9.63423
▁upepo	-9.63424
▁tamaa	-9.63427
▁Hatimaye	-9.63435
sikika	-9.6345
▁mtindo	-9.63457
▁kibiashara	-9.63459
▁me	-9.63516
mpenda	-9.63542
zima	-9.63554
▁boti	-9.63617
▁fupi	-9.63638
▁Shi	-9.6371
▁zanzibar	-9.63772
▁kutambua	-9.6378
▁kulala	-9.63904
bia	-9.63908
bainika	-9.63949
shirika	-9.64033
▁viki	-9.6406
▁Hasani	-9.64114
▁kuuza	-9.64122
▁kusikia	-9.64135
▁Ime	-9.64138
rd	-9.64264
vuta	-9.64577
siri	-9.64655
ipindi	-9.64659
▁Dodoma	-9.64721
▁kiafya	-9.64721
▁shirikisho	-9.64721
▁miundo	-9.64721
▁sifuri	-9.64723
▁isipokuwa	-9.64734
▁dume	-9.64735
▁Iko	-9.65067
▁Ro	-9.65106
▁majimbo	-9.65242
▁kuacha	-9.6534
▁chao	-9.65447
kana	-9.65542
▁kucha	-9.65553
kari	-9.65582
simu	-9.65601
▁walimu	-9.65615
▁Chu	-9.65718
ganda	-9.6572
▁Nchini	-9.65793
mwambia	-9.65833
ngekuwa	-9.65839
▁kupungua	-9.65845
▁Ila	-9.66006
▁kuka	-9.66018
▁Vilevile	-9.66036
▁Libya	-9.66037
▁Miongoni	-9.66037
▁Maneno	-9.66037
▁mstari	-9.66039
▁takwimu	-9.6604
kimbilia	-9.66042
▁mageuzi	-9.66063
▁mikakati	-9.66064
▁Shule	-9.6607
▁nyanya	-9.66071
jue	-9.66105
andaliwa	-9.66121
zindu	-9.6622
sifu	-9.66258
somea	-9.66389
▁barafu	-9.66428
▁maha	-9.66587
▁ai	-9.66597
jui	-9.6661
▁Re	-9.66859
rai	-9.66939
▁visa	-9.66974
weke	-9.67185
▁Ndi	-9.67225
▁Kiongozi	-9.6737
▁mavazi	-9.67371
▁Aina	-9.67384
▁mbio	-9.67386
▁mandhari	-9.67394
▁ahadi	-9.67423
arehe	-9.67447
▁vikuu	-9.67453
▁mtangazaji	-9.67459
▁mtaalamu	-9.675
▁kipato	-9.67514
▁meno	-9.67518
▁Hiv	-9.6752
▁kume	-9.67521
▁kika	-9.67576
▁mgombea	-9.67581
▁Viaz	-9.67686
▁kuhusika	-9.67738
sambaa	-9.67785
▁iliyopo	-9.67947
oga	-9.6809
kati	-9.68227
changa	-9.68257
F	-9.68272
sita	-9.68385
▁Gu	-9.6844
ungu	-9.68463
staafu	-9.68503
simamizi	-9.68551
oto	-9.68575
tatu	-9.68671
▁Kijerumani	-9.68721
▁uwezekano	-9.68721
fafanua	-9.68721
▁urahisi	-9.68722
tawaliwa	-9.68746
▁zawadi	-9.68751
▁kiima	-9.68753
▁haswa	-9.68765
▁uharibifu	-9.68786
▁walitumia	-9.68841
▁mradi	-9.68883
▁kufanyika	-9.69255
▁Kata	-9.69257
▁mungu	-9.69283
tumiaji	-9.6932
▁huathiri	-9.6932
▁pembeni	-9.69326
▁kukutana	-9.69337
lie	-9.69365
▁duni	-9.69442
▁che	-9.69485
▁ufundi	-9.69572
uli	-9.69606
▁kubaki	-9.69721
iwango	-9.69728
▁fi	-9.6975
▁akisema	-9.69764
▁naam	-9.69772
▁kubadilisha	-9.69773
gombea	-9.69793
shawishi	-9.69838
aarifa	-9.69869
▁mwanzoni	-9.699
fuga	-9.69933
▁uwe	-9.70016
▁Zimbabwe	-9.70091
▁kisheria	-9.70091
▁swali	-9.70094
▁mkapa	-9.70095
▁Jumatatu	-9.70096
▁ghasia	-9.70097
▁spishi	-9.701
▁Mwanza	-9.70111
▁viwili	-9.70136
▁msimamo	-9.70155
▁aliyekufa	-9.70197
▁mbunge	-9.70241
▁miili	-9.70289
▁taa	-9.70389
▁vyanzo	-9.70396
ris	-9.70443
▁Ndio	-9.7048
jipatia	-9.70542
▁hatia	-9.70591
▁Waha	-9.70672
▁Walio	-9.70831
ruka	-9.70846
▁kuimba	-9.70855
▁pi	-9.7087
▁Sisi	-9.70891
▁kutupa	-9.70916
nji	-9.70938
P	-9.71044
▁Mbu	-9.71113
▁usio	-9.71179
▁An	-9.71268
▁pe	-9.71375
seme	-9.7147
▁Abe	-9.71475
▁bendera	-9.7148
▁ubaguzi	-9.7148
▁masikio	-9.7148
▁ujuzi	-9.71482
▁Amazon	-9.71483
▁vidogo	-9.71524
▁Lengo	-9.71526
▁tembo	-9.71534
▁Huyu	-9.71546
▁wanahabari	-9.71597
▁kodi	-9.71608
▁Nita	-9.71669
gusa	-9.71777
▁kupoteza	-9.71821
shaji	-9.71944
gonga	-9.72122
▁Le	-9.72175
▁Idi	-9.72228
choka	-9.72296
tofautiana	-9.72298
ambukizwa	-9.72423
▁kisa	-9.72457
msaidia	-9.72458
▁kutunza	-9.72511
▁ti	-9.72595
wezekana	-9.72722
sajili	-9.72731
▁mwe	-9.72744
▁mw	-9.7286
▁Castro	-9.72888
▁Morogoro	-9.72888
▁Suluhu	-9.72888
▁kelele	-9.72888
▁magumu	-9.72891
ume	-9.72898
▁jangwa	-9.72904
lipwa	-9.72937
▁Wameru	-9.72958
▁mbuga	-9.72958
lipofika	-9.72969
ngeweza	-9.7299
▁letu	-9.72992
▁jike	-9.73019
▁Hiyo	-9.73046
▁mitano	-9.73075
▁mkurugenzi	-9.73098
teua	-9.73185
nipa	-9.73219
▁kukata	-9.73412
chagua	-9.73573
ingiza	-9.73652
▁Lo	-9.73725
▁R	-9.73765
▁hawakuwa	-9.73816
okoa	-9.73903
▁hamu	-9.74012
T	-9.74143
▁inapatikana	-9.74226
▁Kaunti	-9.74317
▁makubaliano	-9.74317
▁Mwanamanga	-9.74317
▁manufaa	-9.74317
▁jamaa	-9.7432
▁mabaya	-9.7432
▁Burundi	-9.74323
ungana	-9.74347
▁Njia	-9.74353
safirisha	-9.74414
daiwa	-9.74539
dh	-9.74576
▁mzazi	-9.74579
▁koloni	-9.74588
▁lao	-9.74596
▁alitoa	-9.74599
anga	-9.74654
▁kushika	-9.74685
lla	-9.74718
▁Wao	-9.74728
▁Aliye	-9.74901
▁wasanii	-9.75007
▁amri	-9.75013
iti	-9.75212
▁asilia	-9.75265
▁le	-9.75304
katwa	-9.75415
▁Di	-9.7545
kurugenzi	-9.7555
ns	-9.756
▁wasikilizaji	-9.75651
▁aliwahi	-9.75655
▁kuamua	-9.75729
▁Msumbiji	-9.75766
▁daktari	-9.75766
▁twiga	-9.75766
▁makampuni	-9.75767
▁taswira	-9.75768
▁Nkrumah	-9.75768
▁nyoka	-9.7577
▁Elfu	-9.75808
▁waliuawa	-9.75871
▁kumpa	-9.75891
▁mchanga	-9.75903
▁vikali	-9.76015
▁akiba	-9.76064
▁kwato	-9.76097
▁Ume	-9.761
▁uji	-9.76131
aminika	-9.7637
▁kufuatia	-9.76403
pigana	-9.76491
▁aliandika	-9.76494
▁kupa	-9.76565
▁mbu	-9.76604
tanda	-9.7665
▁Mwi	-9.76892
▁Ny	-9.76977
NI	-9.7698
▁alitumia	-9.77114
▁ny	-9.77137
▁Moja	-9.77232
▁Viongozi	-9.77237
▁William	-9.77237
▁Mahakama	-9.77237
▁blob	-9.77237
▁mkojo	-9.77237
▁wafanyabiashara	-9.77238
▁mzozo	-9.77238
fukuzwa	-9.77239
▁nyakati	-9.77241
▁maajabu	-9.77277
▁Jimbo	-9.77292
▁ninge	-9.77386
kamata	-9.77444
▁Co	-9.77595
nua	-9.77678
iba	-9.77763
▁tumbo	-9.7778
hoji	-9.78291
hiri	-9.78367
▁mate	-9.78428
ham	-9.78613
pendekeza	-9.78729
▁Julius	-9.78729
▁mazoezi	-9.78729
heshimu	-9.78729
▁madrid	-9.78732
▁kingine	-9.78744
▁mashabiki	-9.78758
▁miradi	-9.78791
▁ushindani	-9.7885
▁Hai	-9.7886
saini	-9.7887
▁mashirika	-9.7891
▁zilizopita	-9.78922
▁Wasukuma	-9.78966
▁De	-9.78978
tende	-9.79003
▁ushirika	-9.79013
▁WA	-9.79123
bakia	-9.79263
▁machozi	-9.79303
guzi	-9.79318
▁ri	-9.79336
▁Kumbe	-9.79341
▁mtaani	-9.79356
▁taka	-9.79439
▁bao	-9.79491
sikiliza	-9.79591
▁kuhara	-9.79699
▁kuzunguka	-9.79707
▁YA	-9.79722
aba	-9.79912
▁vijiji	-9.7996
▁Pi	-9.80004
▁Biblia	-9.80244
▁maskini	-9.80244
▁Mwenyekiti	-9.80244
tambuliwa	-9.80245
▁milele	-9.80246
▁Jumatano	-9.80249
▁makini	-9.80272
▁michakato	-9.80276
wasilisha	-9.80296
iva	-9.80306
▁kiungo	-9.80315
▁Congo	-9.80319
▁yupo	-9.80374
▁janga	-9.80397
▁kiki	-9.80404
▁ufalme	-9.80446
▁Aisha	-9.80447
▁walisema	-9.80608
saba	-9.80713
or	-9.80835
▁Wakazi	-9.80892
▁hutegemea	-9.81
patia	-9.81019
▁ulivyo	-9.8103
▁kukubali	-9.81083
▁viti	-9.81093
wo	-9.81124
▁Ngu	-9.81128
ban	-9.81275
▁wanavyo	-9.81306
▁atakuwa	-9.81328
takapo	-9.81349
▁mitaa	-9.81387
▁vika	-9.81403
kabidhi	-9.81404
dia	-9.81431
▁masharti	-9.81783
▁sufuria	-9.81783
▁televisheni	-9.81783
▁Wanafunzi	-9.81783
▁ukurutu	-9.81783
▁idara	-9.81784
▁Kabila	-9.81784
▁Wareno	-9.81784
▁ndizo	-9.81853
▁matamshi	-9.81885
▁nyasi	-9.81889
ungwa	-9.81981
fuatana	-9.8207
▁NA	-9.82077
shangaa	-9.82103
▁uliyo	-9.82108
jengo	-9.82165
▁huruma	-9.82238
ssa	-9.82787
▁kuwapa	-9.82814
▁mamake	-9.82832
kupa	-9.82845
▁kadha	-9.82906
▁shingo	-9.82919
vuka	-9.82988
kwisha	-9.83022
▁kuhifadhi	-9.83144
▁bangi	-9.83222
▁kupatikana	-9.83263
▁Tofauti	-9.83345
▁Watanzania	-9.83345
▁ifuatavyo	-9.83345
▁lingine	-9.83346
▁kidato	-9.83346
▁Messi	-9.83346
▁mayai	-9.83358
wandishi	-9.83366
tumiki	-9.83397
▁kitendo	-9.83398
▁Ndiyo	-9.83405
▁kikoloni	-9.83434
▁Che	-9.83465
▁kiislamu	-9.83538
▁yuko	-9.83551
rani	-9.8356
▁amewa	-9.83585
▁kupinga	-9.83592
▁hazina	-9.83776
▁kuboresha	-9.83805
▁Utawala	-9.84042
pendelea	-9.84098
▁uliokuwa	-9.84113
cheka	-9.84169
choki	-9.84184
▁mbuni	-9.84326
ud	-9.84392
bati	-9.84511
▁kushirikiana	-9.84535
▁kisiwani	-9.84633
▁Duniani	-9.84709
▁Macho	-9.84748
▁ndi	-9.84778
zua	-9.84833
▁Disemba	-9.84933
▁Kimataifa	-9.84933
▁Biashara	-9.84933
▁Jumanne	-9.84933
▁Obote	-9.84933
▁adhabu	-9.84933
▁vikwazo	-9.84933
▁vigumu	-9.84933
▁kimasai	-9.84933
▁zisizo	-9.84933
▁minyoo	-9.84934
▁inge	-9.84935
▁Sababu	-9.84972
▁maadili	-9.84992
▁usingizi	-9.85034
▁J	-9.85081
▁yaliyokuwa	-9.85135
▁juma	-9.85143
▁Saba	-9.85158
ingilia	-9.85173
▁akam	-9.85284
ld	-9.8536
▁pasi	-9.85361
▁alichaguliwa	-9.85377
▁Anasema	-9.85408
▁vijijini	-9.85412
sili	-9.85553
▁karo	-9.85623
zama	-9.85686
ine	-9.85711
kabiliana	-9.85819
tilia	-9.85863
▁kuthibitisha	-9.85876
▁Uko	-9.85901
uhaba	-9.85993
▁chai	-9.86053
▁wanadamu	-9.86056
▁Raisi	-9.86086
▁w	-9.86095
elekeza	-9.86363
▁walifanya	-9.8642
▁hufa	-9.8647
▁wadau	-9.86479
▁Fu	-9.86535
▁Februari	-9.86545
▁Sayyid	-9.86545
▁marehemu	-9.86546
▁vurugu	-9.86546
▁kikwete	-9.86546
▁kipya	-9.86547
▁haramu	-9.86547
▁Ndani	-9.86547
▁tambarare	-9.86548
▁gesi	-9.8655
sihi	-9.86558
▁Mwisho	-9.86576
▁mna	-9.86579
nywe	-9.86605
▁hoja	-9.86637
▁matumaini	-9.86666
▁Mwenyezi	-9.86679
fikisha	-9.86744
▁c	-9.86771
▁aweze	-9.86832
poke	-9.87159
▁Mei	-9.87278
idi	-9.87287
▁Pep	-9.87538
▁majibu	-9.87592
achia	-9.87599
▁Mt	-9.87664
▁kusimamia	-9.87676
funguliwa	-9.87712
C	-9.87737
▁kwangu	-9.87767
▁taji	-9.87813
uwa	-9.87824
▁alizo	-9.87896
▁Uka	-9.88009
q	-9.88184
▁Shughuli	-9.88185
▁Kristo	-9.88185
▁hotuba	-9.88185
▁mgogoro	-9.88185
▁Mazingira	-9.88185
▁Kanuni	-9.88186
▁kushoto	-9.88188
ed	-9.88194
▁usafirishaji	-9.88198
▁mitazamo	-9.88219
▁mafundisho	-9.88223
▁vikundi	-9.88241
▁machafuko	-9.88247
bika	-9.88254
▁kirefu	-9.88288
tahiriwa	-9.88323
▁vipande	-9.88326
kabiliwa	-9.88358
teswa	-9.8839
▁Muda	-9.88417
agiza	-9.88472
pikwa	-9.88474
rejesha	-9.88529
▁alikua	-9.88602
▁kana	-9.88633
▁W	-9.88667
▁Nika	-9.88751
ngua	-9.88897
chezaji	-9.89021
▁alifunga	-9.89157
▁kavu	-9.89212
▁Kale	-9.89232
▁wakuu	-9.89232
wepo	-9.8933
lika	-9.89342
▁waliweza	-9.89458
fadhili	-9.89601
amu	-9.8967
kamatwa	-9.8969
adhimish	-9.89702
▁wabunge	-9.89758
▁Mali	-9.89837
▁Hispania	-9.89851
▁kifonolojia	-9.89851
▁polepole	-9.89853
▁Wananchi	-9.89873
▁mateso	-9.8988
▁mahindi	-9.89903
▁mashairi	-9.89917
▁vipi	-9.89946
▁Wahehe	-9.89973
▁hawata	-9.89993
▁urithi	-9.90052
chezea	-9.90159
▁Katiba	-9.9021
▁ilivyokuwa	-9.90281
▁Nam	-9.90401
▁Vitu	-9.90411
▁kupigwa	-9.90425
▁kuharibu	-9.90445
▁Said	-9.90528
▁wanaamini	-9.90572
▁fani	-9.90602
lan	-9.90611
ika	-9.90692
ambukiza	-9.90801
mali	-9.90888
▁Do	-9.90942
taki	-9.90961
ote	-9.91034
G	-9.91104
atumizi	-9.91231
▁majini	-9.91302
▁kuomba	-9.91353
kuru	-9.91365
kabili	-9.91374
▁kuandaa	-9.91525
▁Jackson	-9.91546
▁Zanura	-9.91546
▁magufuli	-9.91546
tekelezwa	-9.91546
▁kifedha	-9.91546
▁Italia	-9.91547
▁Amri	-9.91551
▁ambae	-9.91551
▁vikubwa	-9.9159
▁kamwe	-9.91602
▁wasemaji	-9.9164
▁wanapenda	-9.91667
▁he	-9.91716
▁msanii	-9.91727
▁Mbali	-9.9173
▁usawiri	-9.91768
▁dha	-9.91792
▁keki	-9.91806
▁Mfalme	-9.91811
▁Hilo	-9.91833
▁kupumua	-9.9185
▁kudai	-9.91917
▁kuepuka	-9.91927
▁mgeni	-9.91935
▁kilele	-9.9205
letea	-9.92053
▁zipo	-9.92111
usi	-9.92149
▁kuchoma	-9.92174
▁babake	-9.92228
▁Basi	-9.92279
▁kufunga	-9.92297
▁hutumiwa	-9.92312
▁ziko	-9.92411
fuatia	-9.92522
buni	-9.92543
▁mikononi	-9.9256
▁kubeba	-9.92563
▁hula	-9.92697
▁Mvu	-9.92856
muona	-9.92939
▁Mak	-9.92942
ur	-9.92978
▁the	-9.92982
▁zako	-9.93106
▁Kara	-9.93129
▁Ronaldo	-9.9327
▁barcelona	-9.9327
▁kilimanjaro	-9.9327
▁ronaldo	-9.9327
▁upatanishi	-9.9327
▁mifano	-9.93271
▁Unguja	-9.93271
▁mitandao	-9.93272
▁wakimbizi	-9.93273
kamilisha	-9.93289
endelee	-9.93291
▁nadra	-9.93317
▁mahakamani	-9.93324
▁majimaji	-9.93335
▁Kifo	-9.93353
▁kuelewa	-9.93389
▁cho	-9.93418
▁anapenda	-9.93431
▁Katibu	-9.93462
▁Juma	-9.93497
uzwa	-9.93505
▁mkopo	-9.93645
▁aliingia	-9.93677
▁aibu	-9.93704
▁kilichokuwa	-9.93717
kumbwa	-9.93854
ugua	-9.93876
▁huishi	-9.9412
ongezea	-9.94165
▁shambani	-9.94246
▁in	-9.94263
▁linaweza	-9.94309
haribika	-9.94336
▁inaendelea	-9.94348
▁Mil	-9.94482
umia	-9.9452
▁wazima	-9.94604
▁wanapatikana	-9.94682
▁alishinda	-9.94735
▁husaidia	-9.94738
mwita	-9.94835
▁Barcelona	-9.95025
▁Ethiopia	-9.95025
▁jitihada	-9.95025
▁real	-9.95025
▁wajerumani	-9.95025
▁kigaidi	-9.95025
▁virutubisho	-9.95025
▁malkia	-9.95025
▁ufanisi	-9.95026
▁Elimu	-9.95026
▁wafungwa	-9.9503
▁miatisa	-9.95031
tambulisha	-9.95035
▁Wajita	-9.95036
▁kidiplomasia	-9.95071
▁Bonde	-9.9508
▁giza	-9.95097
▁wanajamii	-9.95152
▁maandishi	-9.9519
▁Mpaka	-9.95252
▁kifua	-9.95278
▁kumuua	-9.95321
L	-9.95341
▁kimya	-9.95352
pitishwa	-9.95381
andishi	-9.95554
▁mamia	-9.95555
futa	-9.9563
▁Maana	-9.95657
▁kujadili	-9.95661
▁zimekuwa	-9.95777
mbua	-9.95869
▁kuathiri	-9.95941
▁usoni	-9.95952
▁tunaweza	-9.95956
mtaka	-9.96066
▁ilim	-9.96124
WA	-9.96359
▁Au	-9.96419
ger	-9.96432
nyesha	-9.96471
▁uchungu	-9.96475
tano	-9.9648
▁kuamini	-9.96498
▁mda	-9.9655
mwe	-9.96642
um	-9.9676
▁nakadhalika	-9.96811
▁dhamira	-9.96811
▁Tabora	-9.96811
▁Mabadiliko	-9.96811
▁Mifugo	-9.96811
▁ubongo	-9.96812
▁adui	-9.96813
▁mwelekeo	-9.96814
▁Wazee	-9.96814
▁dhahiri	-9.96817
▁Famili	-9.96817
▁Ukimwi	-9.96819
▁pindi	-9.96848
▁vimelea	-9.96878
▁raha	-9.96922
▁marefu	-9.96949
▁kutazama	-9.96978
kali	-9.97023
thamini	-9.97029
▁anayo	-9.97238
▁lipo	-9.97318
▁saini	-9.97398
▁aliona	-9.97559
ngia	-9.97562
▁bana	-9.97604
▁kukamatwa	-9.97621
▁moyoni	-9.97638
ver	-9.97651
zalisha	-9.97725
▁zilizokuwa	-9.97762
▁wakawa	-9.9777
▁watawala	-9.97803
▁kuitwa	-9.97836
▁wanasiasa	-9.97856
▁Mheshimiwa	-9.97871
▁kuzaa	-9.98113
lle	-9.98131
▁aliko	-9.98134
hesabu	-9.98175
kubalika	-9.98205
mbili	-9.98371
jiuliza	-9.98403
▁kutawala	-9.98411
▁kupigana	-9.98485
waambia	-9.98555
▁kuchunguza	-9.98559
▁Shirikisho	-9.98629
▁programu	-9.98629
▁Kitikuu	-9.98629
▁Ofisi	-9.98629
▁Ripoti	-9.98629
▁wamasai	-9.98629
tuhumiwa	-9.98629
▁Cuba	-9.9863
▁Idara	-9.9863
▁Mohamed	-9.9863
▁Wote	-9.98635
▁wafugaji	-9.98638
karibisha	-9.9864
pambana	-9.98641
▁mwanasiasa	-9.98675
▁kikombe	-9.98693
▁Kivu	-9.98727
▁mwanafunzi	-9.98735
▁chu	-9.98765
▁Meru	-9.98769
▁gavana	-9.98791
tegeme	-9.98799
▁bure	-9.9884
pato	-9.98945
▁wachanga	-9.98985
▁wanayo	-9.9902
bari	-9.99044
▁lililokuwa	-9.99111
idhaa	-9.99127
▁kuwasaidia	-9.99129
tabiri	-9.99248
▁kutegemea	-9.99252
▁Ca	-9.99441
Wa	-9.99504
shauriwa	-9.9953
▁kusikiliza	-9.99542
▁Ol	-9.99567
▁mari	-9.9971
▁hayaku	-9.99723
radi	-9.99726
▁kuaminika	-9.99796
islamu	-9.9999
▁wakaazi	-10.0015
shirikisha	-10.0029
▁uchafu	-10.0032
fanyiwa	-10.0032
▁Japo	-10.0034
nasayansi	-10.0048
▁Profesa	-10.0048
▁burudani	-10.0048
▁Shinyanga	-10.0048
▁Ghana	-10.0048
▁Zawadi	-10.0048
▁rasilimali	-10.0048
▁Mkutano	-10.0048
▁Iringa	-10.0048
▁Malawi	-10.0048
▁aba	-10.005
▁ramani	-10.005
▁korona	-10.0051
▁Spishi	-10.0051
▁kuoza	-10.0052
▁vipimo	-10.0053
chukulia	-10.0053
▁mwenzake	-10.0054
▁chifu	-10.0054
▁pengo	-10.0054
▁kizuri	-10.0058
▁Tunu	-10.0061
▁Tumia	-10.0062
funika	-10.0063
jawahi	-10.0069
las	-10.0069
▁Mola	-10.0079
▁hutofautiana	-10.0081
▁iliyofuata	-10.0085
▁huja	-10.0085
▁aidha	-10.0092
ter	-10.0095
shati	-10.0105
▁kufahamu	-10.0109
▁yalio	-10.0132
ingi	-10.0134
tamka	-10.0145
▁Aliwahi	-10.0151
▁kiraia	-10.0158
tekeleza	-10.0162
rs	-10.0168
lya	-10.0168
han	-10.0179
land	-10.019
kiri	-10.0203
▁iliendelea	-10.0206
▁kurejea	-10.0211
▁alilo	-10.0212
mini	-10.0214
▁Makabila	-10.0237
▁Oktoba	-10.0237
▁uvamizi	-10.0237
▁Lumumba	-10.0237
▁fikra	-10.0237
▁popote	-10.0237
▁busara	-10.0237
▁magazeti	-10.0237
▁itakayo	-10.0237
▁mteja	-10.0237
▁falsafa	-10.0237
jikuta	-10.0237
▁reli	-10.0238
▁Abdallah	-10.0238
▁Karibu	-10.0238
▁Dada	-10.0245
▁misri	-10.0247
▁kujaribu	-10.0249
▁Waswahili	-10.0251
zuka	-10.0251
▁hela	-10.0252
himiza	-10.0256
▁sija	-10.0267
▁akim	-10.0272
kosoa	-10.0272
▁usimamizi	-10.0273
▁maja	-10.028
▁unge	-10.0293
gus	-10.0294
▁ilianzishwa	-10.0301
▁kiteng	-10.0302
▁ukame	-10.0302
▁Wale	-10.0314
▁ala	-10.0323
▁visiwani	-10.0338
▁kuchagua	-10.0338
▁hauku	-10.0348
▁waliwa	-10.0349
▁Dha	-10.035
kama	-10.0354
kulima	-10.0377
▁mwao	-10.0386
▁Bana	-10.0387
▁hufanyika	-10.0391
onea	-10.0394
▁kuendesha	-10.0395
▁kufundisha	-10.0403
shangaza	-10.0411
▁tumia	-10.042
ifanya	-10.0426
▁victor	-10.0427
▁shanga	-10.0427
▁united	-10.0429
▁Brazil	-10.0429
▁majimoyo	-10.0429
▁kitovu	-10.0429
▁Manyara	-10.0429
▁halali	-10.0429
▁ukatili	-10.0429
▁mwinyi	-10.043
▁Kisiwa	-10.043
▁ujao	-10.043
▁masaa	-10.0431
▁Titi	-10.0436
▁urembo	-10.044
▁vizazi	-10.0441
▁mitambo	-10.0441
▁bodi	-10.0442
▁makoloni	-10.0442
▁Ruto	-10.0449
jaza	-10.045
▁walioathirika	-10.0451
▁walipata	-10.0455
▁italia	-10.0456
▁inapo	-10.046
chelewa	-10.0462
▁lini	-10.0463
jia	-10.0464
▁Lamu	-10.0464
pamba	-10.0475
▁alifariki	-10.0479
J	-10.048
▁Mwili	-10.0483
▁njeo	-10.0494
▁Cho	-10.0506
tenge	-10.0511
mshukuru	-10.0515
falme	-10.0516
▁alijibu	-10.0519
▁Rama	-10.054
biri	-10.0541
▁paka	-10.0573
▁Wama	-10.0574
▁Mbon	-10.0581
▁inaonyesha	-10.0588
▁hususan	-10.0589
anchester	-10.0594
▁kuhamia	-10.0597
pigia	-10.0618
▁kubadilika	-10.0621
waza	-10.0623
hudumia	-10.0625
▁shujaa	-10.0625
▁umaskini	-10.0625
shambuliwa	-10.0625
▁Kituruki	-10.0625
▁Nadharia	-10.0625
▁kivita	-10.0625
▁Ureno	-10.0625
▁Shujaa	-10.0626
▁ndama	-10.0626
▁kijani	-10.0626
kosea	-10.0626
▁tohara	-10.0627
▁waarabu	-10.0627
▁Taasisi	-10.0627
▁dhambi	-10.0628
▁maporomoko	-10.0628
▁shimo	-10.0629
▁irabu	-10.0631
▁mirefu	-10.0632
▁makaa	-10.0633
▁walioambukizwa	-10.0637
▁viini	-10.0641
onyeshwa	-10.0643
▁ulipo	-10.0655
tayarisha	-10.0659
tesa	-10.0664
▁aliyokuwa	-10.0665
goma	-10.0669
▁pasipo	-10.0683
▁kuvimba	-10.0689
badilishwa	-10.069
▁vilikuwa	-10.0701
▁kuchangia	-10.0714
▁Juni	-10.0718
ficha	-10.0721
▁huchangia	-10.0721
elekezwa	-10.0732
▁ulianza	-10.0733
▁mja	-10.0747
▁kupendeza	-10.075
▁nishati	-10.0751
sawiri	-10.0752
▁zikiwa	-10.0753
vunjika	-10.0757
mwona	-10.0763
▁ilishinda	-10.0769
ipa	-10.0771
▁imesema	-10.0778
▁wanataka	-10.0787
▁alitaka	-10.0794
▁kushughulikia	-10.0796
▁alicho	-10.0798
tama	-10.0803
▁kuanzishwa	-10.0806
tini	-10.0814
▁Hatu	-10.0818
▁kikamilifu	-10.0825
▁majadiliano	-10.0825
▁wakristo	-10.0825
▁kikabila	-10.0825
▁uteuzi	-10.0825
▁vitenzi	-10.0825
▁uainishaji	-10.0825
▁ujasiri	-10.0825
▁uwekezaji	-10.0825
tambulika	-10.0825
▁simulizi	-10.0825
▁masoko	-10.0825
▁Mpango	-10.0825
▁manne	-10.0826
▁Kilwa	-10.0826
▁Mkapa	-10.0826
▁viatu	-10.0826
▁weusi	-10.0827
kopwa	-10.0827
▁Zambia	-10.0827
▁Kilimo	-10.0828
▁Allah	-10.083
▁jicho	-10.0834
▁ndilo	-10.0835
▁malisho	-10.0836
▁Uchafuzi	-10.0841
▁Ama	-10.0841
▁ilikua	-10.0842
▁babu	-10.0857
▁usajili	-10.0862
▁njo	-10.0863
gwe	-10.0865
▁dogo	-10.0874
▁kulima	-10.0893
▁aliyem	-10.092
▁kufanywa	-10.092
baka	-10.0925
pitish	-10.0928
▁katibu	-10.0935
sanii	-10.0945
▁dhi	-10.0947
kamilika	-10.0955
▁Ne	-10.0957
achana	-10.096
▁barabarani	-10.0969
▁mwamba	-10.0974
▁zima	-10.0982
▁Mwenye	-10.1012
et	-10.1015
mpiga	-10.1021
kulia	-10.1026
▁kahawia	-10.1029
▁corona	-10.1029
▁jipya	-10.1029
▁jukwaa	-10.1029
▁tamasha	-10.1029
▁Mfumo	-10.103
▁mboga	-10.103
▁daima	-10.103
▁Ongez	-10.1034
▁Wenye	-10.1034
▁vidonda	-10.1035
kuna	-10.1042
▁kupeleka	-10.1043
▁Utalii	-10.1044
gogo	-10.1045
choma	-10.1045
▁Ndipo	-10.1046
▁watakao	-10.1053
▁mema	-10.1054
▁Gari	-10.1055
kundi	-10.1057
▁wema	-10.1066
▁Tena	-10.1079
▁tamu	-10.1085
▁ujio	-10.109
▁alijiunga	-10.1097
▁kutumiwa	-10.1099
▁alianzisha	-10.1118
hanga	-10.1132
ripoti	-10.1152
▁ladha	-10.1158
chochea	-10.1162
hudhuria	-10.1162
▁amepata	-10.1165
▁msituni	-10.1167
salimi	-10.117
ridhi	-10.1175
▁waandamanaji	-10.1175
mkuta	-10.1176
▁viji	-10.1179
▁kiji	-10.1183
fungi	-10.1189
ajiri	-10.119
nisha	-10.1191
▁kutwaa	-10.1205
shukuru	-10.1217
laumu	-10.1227
▁Yo	-10.1227
rejelea	-10.1238
▁bakteria	-10.1238
▁Jumamosi	-10.1238
▁kiafrika	-10.1238
▁mbegu	-10.1238
▁video	-10.1238
▁atakaye	-10.1238
▁maumbo	-10.1238
▁mazishi	-10.1238
▁Kijana	-10.1238
▁ngano	-10.1238
▁Neno	-10.1245
▁hayati	-10.1246
▁kivuli	-10.1248
hubiri	-10.1249
▁Kigoma	-10.125
▁mshindi	-10.1254
▁mkia	-10.1254
rusha	-10.1254
▁kuogelea	-10.1259
chungu	-10.1263
jadili	-10.1265
toe	-10.1269
▁maishani	-10.1282
▁tele	-10.1283
▁wazuri	-10.1284
▁uongo	-10.1291
songa	-10.1295
chimba	-10.1302
raka	-10.1305
▁nya	-10.1311
rk	-10.1323
▁kufanyiwa	-10.1323
nje	-10.1327
▁wasukuma	-10.1334
▁Du	-10.1339
ber	-10.1349
▁kwe	-10.1349
▁Kina	-10.1362
tii	-10.1363
tamba	-10.1373
▁humu	-10.1375
haribu	-10.138
tishia	-10.1386
▁iliwa	-10.1388
▁pua	-10.141
mkopo	-10.1411
jihusisha	-10.142
tofautisha	-10.1422
▁kuenea	-10.1424
katoliki	-10.1431
▁Kwale	-10.1432
▁kinywa	-10.1433
lori	-10.1434
kinga	-10.1437
▁kuoa	-10.1448
ipengele	-10.145
▁Isabela	-10.145
▁endelevu	-10.145
▁profesa	-10.145
▁ujauzito	-10.145
▁Jared	-10.145
▁migogoro	-10.145
▁Uchaguzi	-10.145
▁Vyombo	-10.145
▁ilhali	-10.145
▁rwanda	-10.145
▁utegemezi	-10.145
▁Afisa	-10.145
▁utekelezaji	-10.145
▁machache	-10.145
▁vyuo	-10.145
▁mgumu	-10.145
hutubia	-10.1451
▁ziada	-10.1451
▁vipengele	-10.1451
▁waafrika	-10.1451
▁endapo	-10.1451
▁kupanga	-10.1453
▁Sahara	-10.1453
▁ngono	-10.1454
▁Wakurya	-10.1457
▁Wayahudi	-10.1459
jikita	-10.1459
▁changu	-10.146
ambatana	-10.1461
tunga	-10.1463
▁mlipuko	-10.1465
furahisha	-10.1469
▁hispania	-10.1474
simamisha	-10.1477
▁Lina	-10.148
jiandaa	-10.1486
▁kupumzika	-10.1489
komboa	-10.1496
▁Pili	-10.1502
▁majirani	-10.1504
▁hauna	-10.1521
vumilia	-10.1526
▁heri	-10.1526
▁mdomoni	-10.153
▁kamba	-10.1539
uzia	-10.1549
▁sokoni	-10.1552
▁alifanikiwa	-10.1552
▁unavyo	-10.1558
▁Haki	-10.1559
▁walim	-10.1568
▁kuruka	-10.1572
▁machi	-10.1575
▁mata	-10.1577
▁mutu	-10.158
hitimu	-10.1592
▁Ad	-10.1598
shutum	-10.1602
wakilishi	-10.1602
▁wakiwemo	-10.1603
lazimish	-10.1605
arifu	-10.1612
jificha	-10.1614
tion	-10.1618
rithi	-10.1619
▁wanam	-10.162
▁waweze	-10.162
▁kichwani	-10.1627
mudu	-10.1636
▁ilisema	-10.164
▁miongo	-10.1644
ty	-10.1651
▁ulimi	-10.1658
wili	-10.1658
mpata	-10.1666
Inkishafi	-10.1668
▁George	-10.1668
▁misaada	-10.1668
▁sampuli	-10.1668
▁hodari	-10.1668
▁zifuatazo	-10.1668
▁mabingwa	-10.1668
▁Juliana	-10.1668
▁Kimasai	-10.1668
▁Odinga	-10.1668
▁hafla	-10.1668
▁masafa	-10.1668
herehe	-10.1668
malizika	-10.1668
nzilishi	-10.1669
▁harufu	-10.167
▁Wanaume	-10.1673
▁cote	-10.1674
▁Raila	-10.1675
▁mrembo	-10.1678
▁matendo	-10.1681
chaka	-10.1682
lalamika	-10.1685
refu	-10.1691
▁uzuri	-10.1691
shusha	-10.1691
dogo	-10.1707
▁amu	-10.1712
▁kutimiza	-10.1714
▁njiani	-10.1723
zikwa	-10.1732
sisi	-10.1732
komaa	-10.1733
twe	-10.1749
fike	-10.1749
ongezwa	-10.1756
▁kuzalisha	-10.1759
▁ms	-10.1775
pende	-10.1777
▁kujali	-10.1781
lete	-10.1787
▁baraka	-10.1804
faidi	-10.1812
ere	-10.1815
▁kupotea	-10.1818
ah	-10.1823
tumaini	-10.1845
▁ukawa	-10.1845
▁nyanja	-10.1845
tafsiri	-10.1846
▁laini	-10.1847
▁Huko	-10.1851
fuatilia	-10.1853
bainisha	-10.1863
aambukizi	-10.1869
sitisha	-10.1876
▁huonekana	-10.1881
▁chuoni	-10.1888
▁Agosti	-10.189
▁Ijumaa	-10.189
▁Kikristo	-10.189
▁Moscow	-10.189
▁Museveni	-10.189
▁Uajemi	-10.189
▁bayern	-10.189
▁kijinsia	-10.189
▁ukurasa	-10.189
▁bluu	-10.189
▁ifuatayo	-10.189
▁angalau	-10.189
▁uokoaji	-10.189
▁Obama	-10.189
▁tanganyika	-10.189
semo	-10.1891
▁nyongeza	-10.1893
▁kuvurug	-10.1893
▁Sina	-10.1896
▁Rangi	-10.1897
wajibika	-10.1899
▁Ruge	-10.19
▁mwanaume	-10.1901
▁Mad	-10.1904
toto	-10.1906
▁Mafuta	-10.1906
▁utendaji	-10.1906
▁Watalii	-10.1907
lam	-10.1908
▁likizo	-10.1909
▁hasara	-10.1913
imarisha	-10.1917
wafanya	-10.1924
▁maarifa	-10.1925
furahia	-10.1928
▁iliyotolewa	-10.1928
kaanza	-10.1929
▁Wazungu	-10.1942
▁shi	-10.1942
▁ilipata	-10.1942
▁eeh	-10.1944
peleke	-10.1951
▁wawakilishi	-10.1958
▁kuwaua	-10.1959
▁tumboni	-10.196
dhihirish	-10.1961
▁mbao	-10.1963
▁Mti	-10.1965
▁haziku	-10.1967
▁nikiwa	-10.1972
▁Dawa	-10.1975
▁uliopo	-10.1978
Y	-10.1984
amka	-10.1988
▁hutoka	-10.1989
takatifu	-10.1991
▁wanahitaji	-10.1996
meongeza	-10.2001
▁Vile	-10.2004
endeshwa	-10.2013
ts	-10.2016
▁Niki	-10.2028
▁liko	-10.2031
R	-10.2037
tibiwa	-10.2046
kumba	-10.2048
taalamu	-10.2084
▁kuunga	-10.2089
▁Tuta	-10.2091
▁go	-10.2095
▁aliyoi	-10.2097
zana	-10.2104
▁Iki	-10.211
eni	-10.2112
misha	-10.2112
▁Damaris	-10.2117
▁Utamaduni	-10.2117
▁Victoria	-10.2117
▁france	-10.2117
▁maadui	-10.2117
▁asante	-10.2117
▁kimsingi	-10.2117
▁taaluma	-10.2117
▁Muundo	-10.2117
▁Bahati	-10.2117
▁viwanja	-10.2117
hofia	-10.2117
kumbusha	-10.2118
▁Junior	-10.2118
▁mweusi	-10.2118
▁tahadhari	-10.2118
▁mwengine	-10.2118
chapishwa	-10.2118
abudu	-10.2119
▁pori	-10.212
▁kisicho	-10.2121
▁mashujaa	-10.2121
▁ardhini	-10.2125
▁balozi	-10.2128
▁bintiye	-10.2129
▁anam	-10.213
andamana	-10.2131
▁mkongwe	-10.2132
▁upili	-10.2132
zuru	-10.2137
▁Hakika	-10.2138
▁mkate	-10.214
▁budi	-10.2143
chezwa	-10.2144
tumie	-10.2151
▁uandishi	-10.2151
levi	-10.2151
mepakana	-10.2152
▁akizungumza	-10.2157
nyonge	-10.2161
▁ncha	-10.2166
mp	-10.2171
chunguzi	-10.2175
dharau	-10.2178
▁ulifanyika	-10.2183
safirishwa	-10.2184
▁vy	-10.219
▁kushangaza	-10.2207
kate	-10.2226
▁hospitalini	-10.2232
donda	-10.2232
▁kisu	-10.224
biti	-10.2249
▁vyako	-10.2259
▁zilizopo	-10.226
▁Ata	-10.2261
▁uvu	-10.2261
naendelea	-10.2273
▁uwanjani	-10.2285
kidhi	-10.2292
▁ca	-10.2293
alimu	-10.2294
▁uchi	-10.2297
ny	-10.2302
▁chungu	-10.2318
zito	-10.2335
koma	-10.2336
▁um	-10.2337
▁Operesheni	-10.235
▁international	-10.235
▁mwekundu	-10.235
▁ndorobo	-10.235
▁serengeti	-10.235
▁umakini	-10.235
▁sharti	-10.235
▁usambazaji	-10.235
▁samadi	-10.235
▁sindano	-10.235
▁Matokeo	-10.235
▁Madrid	-10.235
▁kifungo	-10.235
laumiwa	-10.235
zalendo	-10.235
▁India	-10.235
▁kufungwa	-10.2351
▁Sheikh	-10.2351
▁Binadamu	-10.2351
▁Makamu	-10.2351
▁mwanajamii	-10.2352
▁wahamiaji	-10.2352
▁fukwe	-10.2353
japokuwa	-10.2353
▁kutatua	-10.2353
▁ndicho	-10.2356
▁inchi	-10.2361
wasilishwa	-10.2362
anze	-10.2363
▁Bado	-10.2363
dondo	-10.2365
▁msaidizi	-10.2365
▁Israeli	-10.2367
▁hujulikana	-10.2369
▁matajiri	-10.237
▁Wataalamu	-10.237
▁New	-10.2372
▁unaendelea	-10.2373
▁ndizi	-10.2376
▁maiti	-10.238
▁ham	-10.2381
▁wanadai	-10.2386
▁ushawishi	-10.2394
sawiriwa	-10.2395
▁jela	-10.2396
ajiriwa	-10.2399
▁kilo	-10.24
▁walikufa	-10.2402
▁Mau	-10.2404
▁havi	-10.2411
simulia	-10.2412
koloni	-10.2418
▁kikao	-10.2419
▁Aliwa	-10.2426
▁kufuatilia	-10.2429
mko	-10.2431
ly	-10.2434
▁Mmoja	-10.2439
uwawa	-10.2444
▁sina	-10.2446
▁pamba	-10.2446
kumbana	-10.2456
▁hatarini	-10.2458
▁kilio	-10.2465
pendi	-10.2469
hari	-10.247
▁kumuona	-10.2478
▁inatoa	-10.25
▁Nilikuwa	-10.2506
hamasisha	-10.2512
Inasemekana	-10.2515
▁waliingia	-10.2516
▁Sana	-10.2521
▁kujibu	-10.2524
▁masi	-10.2534
▁mgongo	-10.2555
▁kuruhusu	-10.2559
aafisa	-10.2567
ethali	-10.257
shukiwa	-10.2581
himili	-10.2588
Shabaab	-10.2588
▁Burkina	-10.2588
▁ngorongoro	-10.2588
▁mbadala	-10.2588
▁Twiga	-10.2588
▁Wapiganaji	-10.2588
▁dhamana	-10.2588
▁obama	-10.2588
▁mifupa	-10.2588
▁milki	-10.2588
unganishwa	-10.259
▁miundombinu	-10.2591
▁nyanda	-10.2595
▁kuwekwa	-10.26
▁meza	-10.2601
▁Nga	-10.2604
nce	-10.2606
onald	-10.2613
▁uliofuata	-10.2614
▁ualimu	-10.2615
sanifu	-10.2615
achiwa	-10.2629
▁zuri	-10.2632
▁walikataa	-10.2645
▁kueleza	-10.2651
▁wakenya	-10.2662
liyokuwa	-10.2669
▁Bora	-10.267
HA	-10.2673
▁limekuwa	-10.2694
▁mab	-10.2695
▁waliamua	-10.2705
▁inafanya	-10.2708
▁ada	-10.2714
▁waliishi	-10.2717
▁jiwe	-10.2726
▁wamesema	-10.2766
tabasamu	-10.2786
mashariki	-10.2787
meza	-10.2789
husiano	-10.2789
lazimisha	-10.2792
pigi	-10.2794
▁wakali	-10.2813
▁kuvaa	-10.282
ingine	-10.2823
ripotiwa	-10.283
▁kipaumbele	-10.2832
▁kiserikali	-10.2832
▁kufanikisha	-10.2832
▁marekebisho	-10.2832
▁runinga	-10.2832
dhuru	-10.2832
▁Injili	-10.2832
▁Mchakato	-10.2832
▁libya	-10.2832
▁matarajio	-10.2832
▁albamu	-10.2832
▁Agano	-10.2832
▁mavuno	-10.2832
▁Jinsi	-10.2832
▁magoli	-10.2832
▁nahodha	-10.2832
▁Kitaifa	-10.2833
▁mziki	-10.2833
▁kiatu	-10.2835
▁majeraha	-10.2835
▁nzito	-10.2835
▁wapya	-10.2836
▁Faso	-10.2837
▁kioo	-10.2837
ste	-10.2838
▁Yaani	-10.2838
▁Kiasi	-10.2846
ovu	-10.2846
barikiwa	-10.2849
▁mfuko	-10.2852
▁Chifu	-10.2854
▁mwanangu	-10.2857
ulizwa	-10.2858
▁misimu	-10.2865
safisha	-10.2875
▁huambukizwa	-10.2875
▁kuhama	-10.2876
▁Wapo	-10.2877
meni	-10.289
▁seli	-10.2891
▁Shanga	-10.2892
shwe	-10.2892
▁waliji	-10.2899
▁maua	-10.29
hifadhi	-10.2903
▁awa	-10.2904
▁kifaa	-10.2905
tibu	-10.2909
▁kutibu	-10.2912
▁watakatifu	-10.2915
▁Hizi	-10.2924
▁boma	-10.2927
zuri	-10.2928
mbuki	-10.2932
ekta	-10.2932
eleze	-10.2937
pendo	-10.2953
paka	-10.2957
▁ofisini	-10.2957
▁huanza	-10.2959
▁alijua	-10.2961
▁kuingiza	-10.2963
▁wakitumia	-10.2965
▁huwezi	-10.2973
komesha	-10.2973
▁inasema	-10.2983
▁bia	-10.2985
simami	-10.2985
▁kutisha	-10.2986
▁kuzungumzia	-10.2993
▁Zili	-10.2998
talii	-10.3
▁kukusanya	-10.3003
▁kuvunja	-10.3003
andama	-10.301
saka	-10.3014
▁alisoma	-10.302
wekeza	-10.3022
▁Miko	-10.3031
kono	-10.3033
▁Ngo	-10.3039
ambie	-10.3046
ajili	-10.3062
▁ch	-10.3067
▁h	-10.3069
▁Ipo	-10.3069
stawi	-10.3074
julikani	-10.3079
▁Bikisiwa	-10.3082
▁Guardiola	-10.3082
▁kitamaduni	-10.3082
▁mafuriko	-10.3082
▁ujamaa	-10.3082
▁uzoefu	-10.3082
▁dharura	-10.3082
▁thabiti	-10.3082
▁dhaifu	-10.3082
▁robo	-10.3082
▁Wabena	-10.3082
▁kinyesi	-10.3082
▁kaburi	-10.3082
▁nidhamu	-10.3082
▁mizizi	-10.3082
▁Kupe	-10.3083
▁wasomi	-10.3083
▁Biden	-10.3083
pelelezi	-10.3084
▁mwongozo	-10.3084
▁tiketi	-10.3084
▁mitihani	-10.3084
▁rfi	-10.3086
▁Roho	-10.3086
apishwa	-10.3087
▁uchanganuzi	-10.3087
▁kujikinga	-10.3089
▁makanisa	-10.3089
▁Petroli	-10.3094
mbwe	-10.3095
saidie	-10.3098
▁mvulana	-10.3099
megawanyika	-10.3102
▁inaitwa	-10.3102
liko	-10.3104
▁Damu	-10.3106
▁rima	-10.3108
▁chuki	-10.3108
eleweka	-10.3111
dhuri	-10.3114
ff	-10.3114
▁uti	-10.3116
▁Hayo	-10.3119
▁kipande	-10.3122
▁Ham	-10.3131
▁kubadili	-10.3134
kie	-10.3138
▁v	-10.3143
▁linapatikana	-10.3144
▁Saa	-10.3159
▁majira	-10.3167
▁wanapaswa	-10.3171
patiwa	-10.3178
▁Pu	-10.3188
kuza	-10.3201
sambaza	-10.3208
▁mtawala	-10.3221
▁mwanga	-10.3223
hifadhiwa	-10.3223
bahatika	-10.3224
uri	-10.3229
▁wanatakiwa	-10.3232
▁Musa	-10.3235
▁hum	-10.3235
▁Akawa	-10.3235
▁wakisema	-10.3238
mtazama	-10.3238
choro	-10.3251
sichana	-10.3255
umu	-10.3259
boresha	-10.3263
res	-10.3263
▁kuuliza	-10.3284
dudu	-10.3288
▁Sultan	-10.3302
nchi	-10.3302
▁utakuwa	-10.3304
islam	-10.3309
handisi	-10.3312
hamishwa	-10.3315
▁pumzi	-10.3317
▁yamekuwa	-10.332
▁nilivyo	-10.3329
▁Kima	-10.3329
ren	-10.333
dikteta	-10.3338
gunduliwa	-10.3338
▁Nelson	-10.3338
▁mahsusi	-10.3338
▁makumbusho	-10.3338
▁mapumziko	-10.3338
▁buluu	-10.3338
▁ugaidi	-10.3338
▁Malkia	-10.3338
▁tishio	-10.3338
▁david	-10.3338
▁Warangi	-10.3338
▁msomaji	-10.3338
▁kahawa	-10.3339
▁karatasi	-10.3339
▁yafuatayo	-10.334
▁haijulikani	-10.3341
▁Kilifi	-10.3342
rah	-10.3342
▁kiazi	-10.3343
▁mchambuzi	-10.3344
skari	-10.3345
tumi	-10.3346
▁hatima	-10.3347
▁kifupi	-10.3348
geuza	-10.3348
wasaidia	-10.335
▁ufisadi	-10.335
▁alo	-10.335
▁Tembo	-10.3352
ker	-10.3355
uawa	-10.3359
tazam	-10.336
▁dhati	-10.336
▁sugu	-10.336
thari	-10.3361
▁mwakilishi	-10.3363
▁mwema	-10.3364
▁umati	-10.3364
fukuza	-10.3364
▁aliishi	-10.3364
▁kusimama	-10.3368
▁hawawezi	-10.337
▁Bada	-10.3375
▁wanafanya	-10.3376
▁mahari	-10.3379
tete	-10.3387
▁akifanya	-10.3387
▁anafanya	-10.3387
▁kujiuzulu	-10.3393
▁huji	-10.3393
▁pole	-10.3395
jengea	-10.34
▁chafu	-10.3404
mbali	-10.3411
some	-10.3419
▁mitaani	-10.342
ganga	-10.3432
enzi	-10.3451
▁kuambukiza	-10.3454
▁kutunga	-10.3465
▁likiwa	-10.3467
tangulia	-10.3469
mika	-10.347
zalia	-10.3471
sikiti	-10.3477
▁mkononi	-10.3484
tungwa	-10.3484
▁kuliwa	-10.3492
elewe	-10.3493
▁uliendelea	-10.3495
toweka	-10.3496
▁wakiishi	-10.3502
▁kushuka	-10.3502
alika	-10.3511
▁kuolewa	-10.3516
chapa	-10.3516
▁mwi	-10.3525
▁kutolewa	-10.3531
▁Kidemokrasi	-10.3538
achi	-10.3543
▁fahamu	-10.3547
itabu	-10.3551
hamisha	-10.3554
elezi	-10.3557
swahili	-10.3559
▁hukumu	-10.3562
umi	-10.3563
▁Sio	-10.3574
▁Meli	-10.3576
kauka	-10.3581
▁wanawe	-10.3591
tulia	-10.3594
fo	-10.3596
umiza	-10.3598
shuhudiwa	-10.3601
▁nguruwe	-10.3601
▁suluhu	-10.3601
▁uhamisho	-10.3601
▁viambishi	-10.3601
▁volkeno	-10.3601
▁nairobi	-10.3601
▁ujasusi	-10.3601
▁Kibantu	-10.3601
▁mawimbi	-10.3601
tafakari	-10.3601
▁tegemezi	-10.3601
pandishwa	-10.3601
▁njano	-10.3601
▁Muziki	-10.3602
▁nigeria	-10.3602
▁nyuzi	-10.3602
▁wadhifa	-10.3603
rekodiwa	-10.3604
gala	-10.3606
sogez	-10.3606
▁uhalisiajabu	-10.3607
sumbua	-10.3608
▁waliouawa	-10.3611
▁Japani	-10.3612
▁mwitu	-10.3612
▁Yowe	-10.3616
▁kujitokeza	-10.3616
▁alirudi	-10.3618
▁inasemekana	-10.3618
▁Pemba	-10.3622
▁aliongoza	-10.3623
ngaa	-10.3623
zembe	-10.3624
sipo	-10.3628
▁lililou	-10.3629
▁uhifadhi	-10.3629
▁milimani	-10.363
▁Papa	-10.3631
▁kitandani	-10.3635
pira	-10.3639
▁Amesema	-10.3646
okolewa	-10.365
▁siwezi	-10.3654
▁hati	-10.3662
▁alimwambia	-10.3667
bebe	-10.3668
▁kuingilia	-10.3683
▁amesha	-10.3687
tenganish	-10.3688
▁kanali	-10.3689
▁kusitisha	-10.3692
▁Mat	-10.3694
▁Zina	-10.3695
▁Simu	-10.3704
▁alikufa	-10.3705
▁udhibiti	-10.3711
asisi	-10.3725
▁kutokuwa	-10.3727
▁ukuta	-10.3729
▁kuzama	-10.3731
takavyo	-10.3739
▁yaliyopo	-10.3743
hehe	-10.3756
ndiko	-10.3767
▁kuchaguliwa	-10.3776
iona	-10.3779
▁kutenda	-10.3789
ondolewa	-10.38
zui	-10.3804
▁hayana	-10.381
▁kadiri	-10.381
rudia	-10.3834
gonjwa	-10.3847
▁yalivyo	-10.3852
eneza	-10.3854
jaribio	-10.3855
skofu	-10.3856
ingie	-10.386
orodhesh	-10.3872
▁Australia	-10.3872
▁Muhammad	-10.3872
▁Wamaasai	-10.3872
▁jumuia	-10.3872
▁wanaharakati	-10.3872
▁mashua	-10.3872
▁shinikizo	-10.3872
▁Corona	-10.3872
▁kiangazi	-10.3872
▁mshahara	-10.3872
▁ukaribu	-10.3872
▁Virusi	-10.3872
▁Julai	-10.3872
▁hiari	-10.3872
▁maombi	-10.3872
▁Tisa	-10.3872
jivunia	-10.3872
▁Kanali	-10.3872
▁sokoine	-10.3873
▁Kijiji	-10.3873
angukia	-10.3874
▁undani	-10.3874
hukumiwa	-10.3875
▁matakwa	-10.3876
▁machoni	-10.3878
▁mauti	-10.3882
gharimu	-10.3883
▁mpangilio	-10.3886
▁mshairi	-10.3886
▁gu	-10.3887
▁dua	-10.3888
▁mkondo	-10.389
ngamano	-10.3892
▁kas	-10.3892
haribiwa	-10.3892
▁msikiti	-10.3894
▁Mwanzoni	-10.3902
▁kan	-10.3907
▁co	-10.3908
▁kuwasiliana	-10.391
▁Nje	-10.3914
▁mosi	-10.3914
pishi	-10.3924
lishi	-10.3926
▁utani	-10.3927
▁chui	-10.3927
wenda	-10.3936
▁uhakiki	-10.3938
▁kisi	-10.3946
▁Chato	-10.3946
▁kuondolewa	-10.3948
▁uto	-10.3952
sheni	-10.3972
itumia	-10.3973
nachama	-10.3976
liza	-10.3989
▁kishazi	-10.3991
▁Kibo	-10.3994
▁kutoku	-10.3995
▁Maalim	-10.3996
▁ye	-10.3998
▁Wata	-10.4002
ndika	-10.4009
kubwa	-10.4038
IS	-10.4041
winda	-10.4045
▁yo	-10.4046
▁akaanza	-10.4047
▁kuungana	-10.4047
▁kuuawa	-10.4058
pongeza	-10.4062
ing	-10.4077
▁Sawa	-10.4081
▁walifika	-10.4084
TA	-10.4103
chemsha	-10.4104
▁kusubiri	-10.4114
▁hupewa	-10.4124
▁kushambulia	-10.4125
kuzi	-10.4127
▁tawi	-10.4131
shindi	-10.4132
▁bungeni	-10.4144
sherehekea	-10.4149
▁Hussein	-10.4149
▁Ikumbukwe	-10.4149
▁kemikali	-10.4149
▁kibinadamu	-10.4149
▁kisayansi	-10.4149
▁mourinho	-10.4149
▁studio	-10.4149
▁Gavana	-10.4149
▁Liyongo	-10.4149
▁itikadi	-10.4149
▁ukombozi	-10.4149
▁virutubishi	-10.4149
▁mamilioni	-10.4149
▁hafifu	-10.4149
▁sisimizi	-10.4149
▁Fedha	-10.4149
▁Halafu	-10.4149
▁mguu	-10.415
▁huzuni	-10.415
▁kangaroo	-10.415
▁burundi	-10.4151
▁Msitu	-10.4151
vutiwa	-10.4151
▁Sarah	-10.4151
▁penye	-10.4152
▁yenu	-10.4152
▁Lazima	-10.4153
▁Fatuma	-10.4154
▁figo	-10.4157
▁mabomu	-10.4158
▁kibinafsi	-10.4158
von	-10.4158
▁makombe	-10.416
▁Il	-10.416
▁hawajui	-10.4161
vimba	-10.4169
jamii	-10.4172
wataka	-10.4191
livyokuwa	-10.4196
▁The	-10.4204
meanza	-10.4204
shiki	-10.4209
▁wanatumia	-10.4211
fuko	-10.4215
▁Ge	-10.4225
zwe	-10.4229
iweka	-10.423
alamu	-10.423
asomo	-10.4233
▁kuwekeza	-10.4235
isimu	-10.4238
▁anapaswa	-10.4251
▁kipo	-10.4257
▁shaba	-10.4259
natakiwa	-10.4262
▁kuelezea	-10.4266
▁alikataa	-10.4268
▁kipa	-10.4274
▁kutoweka	-10.4275
kumbukwa	-10.4278
▁r	-10.4288
▁Kas	-10.4293
▁Kili	-10.4296
▁She	-10.431
zingatiwa	-10.4317
taji	-10.4327
lipoanza	-10.4327
lengwa	-10.4327
tembele	-10.4354
▁wapare	-10.4362
▁akilini	-10.4363
▁Tabia	-10.4364
▁kufungua	-10.4365
▁Tuki	-10.437
amuzi	-10.4376
▁kumbe	-10.4376
▁wanatoka	-10.4381
lin	-10.4391
niambia	-10.4392
▁ati	-10.4398
▁zilivyo	-10.4399
▁waliokufa	-10.4407
▁inaonekana	-10.441
▁kuathiriwa	-10.4414
▁mlo	-10.442
▁mme	-10.4421
namuziki	-10.4422
jaliwa	-10.4424
imarika	-10.443
▁kuonesha	-10.4431
▁Atlantiki	-10.4435
▁Magreth	-10.4435
▁Tarangire	-10.4435
▁baiskeli	-10.4435
▁mjamzito	-10.4435
▁zozote	-10.4435
▁Pasifiki	-10.4435
▁Zidane	-10.4435
▁dizeli	-10.4435
▁Seif	-10.4435
▁nyumbu	-10.4435
▁michache	-10.4435
▁Bandari	-10.4435
▁Kagame	-10.4435
▁mbolea	-10.4435
▁kirahisi	-10.4435
▁Angola	-10.4435
▁Debby	-10.4435
▁magofu	-10.4435
▁juisi	-10.4435
▁Mbeya	-10.4435
▁tunisia	-10.4435
▁kudumisha	-10.4436
▁huohuo	-10.4436
▁uraia	-10.4436
▁kidole	-10.4436
▁lote	-10.4436
▁kadri	-10.4436
▁kimwili	-10.4436
▁weupe	-10.4436
▁Pombe	-10.4437
▁pakubwa	-10.4439
▁Abd	-10.4439
▁Bar	-10.4439
gawanywa	-10.444
shikamana	-10.444
tamkwa	-10.4441
▁Ulimwengu	-10.4441
▁mikataba	-10.4442
▁Anita	-10.4443
▁hadharani	-10.4446
▁nafaka	-10.4447
▁chote	-10.4448
▁kibali	-10.4449
▁Nguvu	-10.4449
▁kurekebishwa	-10.4449
sse	-10.4451
▁mteule	-10.4451
▁mtendaji	-10.4453
▁Musoma	-10.4453
▁Moshi	-10.4454
chukia	-10.4454
fundishwa	-10.4456
▁mazito	-10.4456
▁Ambayo	-10.4457
▁aliyeathirika	-10.4459
▁Ligi	-10.4459
kusanywa	-10.4465
▁uhalisia	-10.4466
▁Epu	-10.4466
▁hadhira	-10.4468
▁Hayati	-10.4468
▁aya	-10.447
▁tendo	-10.4474
vuli	-10.4483
▁nambari	-10.4488
endana	-10.4492
pasuka	-10.4499
▁wagombea	-10.4499
▁papa	-10.4501
▁alionekana	-10.4502
kubaliwa	-10.4504
ombo	-10.4509
▁kujengwa	-10.4512
▁inayojulikana	-10.4514
mojawapo	-10.4515
▁mshauri	-10.4515
▁Kanda	-10.4517
▁tupu	-10.4519
▁zinapatikana	-10.4527
▁alifika	-10.4535
ibua	-10.4536
▁walipokuwa	-10.4537
▁ufahamu	-10.4569
mjua	-10.4574
den	-10.4588
imarish	-10.4595
sifika	-10.46
▁jinai	-10.4618
chukuwa	-10.4628
▁Bin	-10.4659
kopa	-10.4676
▁-	-10.4676
liona	-10.4679
▁gha	-10.4695
tari	-10.4696
mati	-10.47
njo	-10.4704
upe	-10.4708
▁pacha	-10.4719
egemea	-10.4723
jishughulisha	-10.4729
▁mwanaharakati	-10.4729
▁wajawazito	-10.4729
▁pilau	-10.4729
▁mithili	-10.4729
▁ijayo	-10.4729
▁maduka	-10.4729
▁ukumbi	-10.4729
▁mauzo	-10.473
▁oparesheni	-10.473
▁utata	-10.473
lazimu	-10.4732
▁kalamu	-10.4732
▁haba	-10.4732
▁wavuvi	-10.4732
▁madaktari	-10.4733
▁vilabu	-10.4734
pasu	-10.4734
▁she	-10.4734
▁Kaka	-10.4735
▁nuru	-10.4735
▁eko	-10.4736
▁radhi	-10.4736
bebwa	-10.4736
▁Uholanzi	-10.4737
dhamini	-10.474
vunjwa	-10.4746
▁mkusanyiko	-10.4747
▁mkakati	-10.4747
▁haiwezi	-10.4748
▁vipaji	-10.4749
▁sijui	-10.4749
▁ushiriki	-10.4751
▁usaidizi	-10.4753
fanyike	-10.4753
huri	-10.4756
panuka	-10.4761
▁Wiki	-10.4764
▁juzi	-10.4773
▁kuenda	-10.4778
▁aliyoya	-10.478
▁anaishi	-10.479
▁waliendelea	-10.4794
▁kubaini	-10.4795
mtoka	-10.48
wekea	-10.48
▁Maria	-10.4804
timia	-10.4806
▁ukali	-10.4811
lipia	-10.4817
maji	-10.4818
vya	-10.4829
Ku	-10.4833
▁Bei	-10.484
▁hakuweza	-10.4845
▁kugusa	-10.4869
▁San	-10.4874
shinikiza	-10.4895
▁kusambaa	-10.4898
▁deni	-10.4898
cheke	-10.4899
▁iliongezeka	-10.4913
▁alicheza	-10.4914
san	-10.4919
tic	-10.492
▁kugeuka	-10.4933
gue	-10.4937
rabu	-10.4943
▁mag	-10.4948
▁kiza	-10.4952
tofauti	-10.4956
▁asali	-10.4959
▁imetoa	-10.4965
▁kumsaidia	-10.4975
rejesh	-10.4977
▁wapenzi	-10.4984
hukumu	-10.4989
▁niliyo	-10.4992
▁Gi	-10.4993
ilaha	-10.5003
ache	-10.5008
gawanyika	-10.5008
lipuko	-10.5011
hiyo	-10.5015
▁Mifan	-10.5016
▁ongeza	-10.5016
ampuni	-10.5031
andikisha	-10.5032
hesabiwa	-10.5032
▁Makerere	-10.5032
▁Marondera	-10.5032
▁madhumuni	-10.5032
▁pikipiki	-10.5032
▁udhaifu	-10.5032
▁uhasama	-10.5032
▁Labda	-10.5032
▁kiambishi	-10.5032
▁Singida	-10.5032
▁maharage	-10.5032
▁Kikwete	-10.5032
▁himaya	-10.5032
▁uwindaji	-10.5032
▁riwaya	-10.5032
ndrew	-10.5032
▁mgomo	-10.5032
chochewa	-10.5032
▁ikulu	-10.5032
▁azma	-10.5032
▁Jenerali	-10.5032
▁Kichwa	-10.5032
▁muuaji	-10.5032
▁maradona	-10.5032
▁Uchina	-10.5033
▁upesi	-10.5033
▁upatikanaji	-10.5033
▁Karagwe	-10.5033
▁ngo	-10.5033
elimisha	-10.5033
▁ugali	-10.5034
▁Peter	-10.5035
hakikishia	-10.5035
makamu	-10.5036
▁gram	-10.5037
▁Jose	-10.5039
▁congo	-10.504
▁uchopekaji	-10.5041
shirini	-10.5043
msawiri	-10.5045
▁of	-10.5046
▁Binti	-10.5047
▁kitalii	-10.5049
▁Moyo	-10.5051
▁uasi	-10.5051
fufua	-10.5052
lindwa	-10.5053
▁idd	-10.5054
▁chetu	-10.5054
▁Wasichana	-10.5056
saidiwa	-10.5057
▁ghana	-10.5057
▁Walimu	-10.5057
shara	-10.5059
▁goli	-10.5061
▁walizo	-10.5062
ambi	-10.5063
▁kufanikiwa	-10.5063
hariri	-10.5063
▁Zamani	-10.5064
▁Homa	-10.5066
▁Paulo	-10.5069
lelewa	-10.507
▁sikukuu	-10.5071
▁aliuawa	-10.5072
nyonya	-10.5072
meta	-10.5072
safi	-10.5077
▁ute	-10.5084
▁kupima	-10.5089
▁tabasamu	-10.5089
the	-10.5091
embo	-10.5091
▁tafsiri	-10.5095
▁nu	-10.5096
koko	-10.5096
eleke	-10.51
▁kusambaza	-10.5118
sco	-10.5119
▁kueneza	-10.5119
▁yalianza	-10.5131
▁ameshinda	-10.5147
mwaga	-10.5154
▁kukataa	-10.5165
timiz	-10.5166
NE	-10.5177
▁kuvuka	-10.5186
chele	-10.5192
▁amin	-10.5194
iana	-10.5208
▁kuvuta	-10.5215
bali	-10.5217
▁angani	-10.5223
dumish	-10.5228
▁anaeleza	-10.5229
▁alishindwa	-10.5235
▁waliona	-10.5247
naopatikana	-10.5262
▁Fat	-10.5265
dhaniwa	-10.5266
Z	-10.5269
meendelea	-10.5274
▁kupelekwa	-10.5275
▁unahitaji	-10.5283
▁Mjini	-10.5297
▁Jua	-10.5299
bel	-10.5308
▁Hakuwa	-10.532
dy	-10.5329
aelezo	-10.5332
▁mwenza	-10.5333
▁zilipo	-10.5334
pungu	-10.5336
pendekezwa	-10.5345
▁Liberia	-10.5345
▁kiteknolojia	-10.5345
▁misafara	-10.5345
▁saratani	-10.5345
▁unyanyasaji	-10.5345
▁wenzangu	-10.5345
▁London	-10.5345
▁Wafanyabiashara	-10.5345
▁kimtandao	-10.5345
▁mwanajeshi	-10.5345
▁Twende	-10.5345
▁msukumo	-10.5345
▁kiroho	-10.5345
▁Ikulu	-10.5345
▁Mikumi	-10.5345
▁mzunguko	-10.5345
▁Ruaha	-10.5345
▁vidole	-10.5345
▁karanga	-10.5345
▁edw	-10.5345
▁ugumu	-10.5345
▁Makenga	-10.5345
▁rushwa	-10.5345
▁nguzo	-10.5345
▁Msingi	-10.5345
▁Dokta	-10.5345
▁Nora	-10.5345
vulana	-10.5346
funikwa	-10.5346
▁upana	-10.5346
▁Ndugu	-10.5347
▁mabonde	-10.5347
▁mapambo	-10.5348
▁utakao	-10.5349
jarida	-10.535
▁tenzi	-10.5351
▁matawi	-10.5352
▁Mag	-10.5353
▁Paul	-10.536
▁Mtume	-10.537
▁washindi	-10.5373
ridhisha	-10.5375
▁msemo	-10.5376
ilioni	-10.538
▁Alipofika	-10.538
▁kukagua	-10.5382
▁Usiku	-10.539
▁mabara	-10.5394
▁mabo	-10.5408
nyima	-10.5416
▁mtunzi	-10.5425
▁huvaa	-10.5446
▁twa	-10.5446
▁Dini	-10.5448
▁chi	-10.5453
▁sema	-10.5461
goro	-10.5462
▁anacheza	-10.5472
▁wameua	-10.5474
bainishwa	-10.5497
▁mabaki	-10.55
▁tulikuwa	-10.5503
▁mfung	-10.5513
nyika	-10.5514
mfuata	-10.5522
pewe	-10.5523
▁Zo	-10.5524
▁kumwambia	-10.5531
vye	-10.5534
futi	-10.5544
▁tafiti	-10.5549
▁marais	-10.555
▁huliwa	-10.5555
shuru	-10.5573
buru	-10.5581
▁upi	-10.5585
toroka	-10.5592
marekani	-10.5592
▁kuanguka	-10.5602
LI	-10.5613
panua	-10.5613
▁Ar	-10.5616
▁yalipo	-10.5618
V	-10.5623
lilia	-10.5627
laki	-10.5629
pige	-10.563
▁Zanzibari	-10.5631
saidizi	-10.5631
tabaka	-10.5635
KA	-10.5636
mweleza	-10.5646
atamshi	-10.5646
juza	-10.5659
vali	-10.566
Ki	-10.5666
▁Algeria	-10.5667
▁daftari	-10.5667
▁kompyuta	-10.5667
▁mfiadini	-10.5667
▁Poland	-10.5667
▁Town	-10.5667
▁bagbo	-10.5667
▁john	-10.5667
samehe	-10.5667
▁jeraha	-10.5667
▁mvutano	-10.5667
▁kishindo	-10.5667
▁agizo	-10.5667
▁majumba	-10.5667
▁kwasababu	-10.5667
▁Tamasha	-10.5667
▁mahususi	-10.5667
▁mseto	-10.5667
▁utunzaji	-10.5668
▁Korea	-10.5668
▁vyeo	-10.5668
patikani	-10.5668
▁Abdul	-10.5668
fuatwa	-10.5668
▁Kigali	-10.5668
▁ngapi	-10.5668
▁Visiwa	-10.5668
▁Luther	-10.5668
▁dereva	-10.5668
▁sarufi	-10.5668
waona	-10.5669
▁maono	-10.5669
fasiri	-10.567
▁Awali	-10.567
▁Geita	-10.5671
▁mwenzi	-10.5672
▁wateja	-10.5673
▁Malindi	-10.5673
▁vitisho	-10.5673
▁L	-10.5676
▁mitindo	-10.5683
▁ubunifu	-10.5684
ngependa	-10.5684
pishana	-10.5686
▁starehe	-10.5686
▁ombi	-10.5687
▁majaribio	-10.5687
▁Jay	-10.5688
▁Albam	-10.5693
▁uza	-10.5694
mtafuta	-10.5695
olf	-10.5696
kwepa	-10.5696
thibitishwa	-10.5703
▁ulianzishwa	-10.5703
▁kujitegemea	-10.5704
▁shairi	-10.5704
▁Data	-10.5707
▁Babu	-10.5708
▁alichukua	-10.571
▁mataji	-10.5711
ridhika	-10.5717
laani	-10.5718
sikilizaji	-10.5721
binu	-10.5722
▁Mila	-10.5727
nc	-10.5727
▁pango	-10.573
▁apate	-10.573
▁kujeruhiwa	-10.5734
nyonga	-10.5738
ngoja	-10.5741
▁Inayo	-10.5742
busu	-10.5746
undi	-10.5746
dau	-10.5748
▁Sanaa	-10.5757
▁alichoki	-10.576
▁Tatu	-10.5762
▁kuumwa	-10.5762
▁inamaanisha	-10.5768
ric	-10.577
▁aliuliza	-10.5775
▁kuhitimu	-10.5782
▁Mwanga	-10.5785
fikiwa	-10.5793
▁kutuma	-10.5798
tangazaji	-10.5805
rudishwa	-10.5805
▁kuugua	-10.581
alum	-10.5817
▁amefanya	-10.5831
▁kuokoa	-10.5841
▁hapana	-10.5844
kondo	-10.5852
▁kimo	-10.588
liokuwa	-10.5882
▁Sija	-10.5893
▁kufuatana	-10.5896
▁hukaa	-10.59
▁aje	-10.5917
fana	-10.5919
per	-10.5923
kiongozwa	-10.5923
gambo	-10.5932
▁kuangazia	-10.5944
▁haukuwa	-10.5952
▁Iliyo	-10.5956
mjibu	-10.5962
ratibu	-10.5964
isti	-10.5967
fisha	-10.597
shindani	-10.5979
▁wanajua	-10.599
▁ametoa	-10.5993
▁Trump	-10.6001
▁Wachagga	-10.6001
▁Wanyaturu	-10.6001
▁Wazaramo	-10.6001
▁chimbuko	-10.6001
▁msamaha	-10.6001
gundulika	-10.6001
▁Guinea	-10.6001
▁kifasihi	-10.6001
▁nurdin	-10.6001
▁upasuaji	-10.6001
▁wenzao	-10.6001
▁maonesho	-10.6001
▁Ujenzi	-10.6001
▁muhula	-10.6001
▁visivyo	-10.6001
▁munich	-10.6001
▁uchimbaji	-10.6001
▁vigezo	-10.6001
▁mashine	-10.6001
▁Mtwara	-10.6001
▁Ituri	-10.6001
▁ubeti	-10.6001
▁mweupe	-10.6001
▁tuko	-10.6002
▁malezi	-10.6002
▁Real	-10.6002
stahimili	-10.6003
▁abuso	-10.6003
▁Maziwa	-10.6004
▁Mitaa	-10.6004
▁Chameleone	-10.6004
▁ikifuatiwa	-10.6005
kumbatia	-10.6005
▁Kanada	-10.6005
▁wafanyikazi	-10.6006
▁tangazo	-10.6007
epuka	-10.6007
▁Boria	-10.6008
▁ngome	-10.6008
mwi	-10.6009
nyongwa	-10.6009
kongwe	-10.6009
kanusha	-10.6009
▁Haraka	-10.6009
▁Kifaransa	-10.601
▁fimbo	-10.601
▁African	-10.601
▁mzizi	-10.601
▁somo	-10.6013
zungukwa	-10.6014
fwat	-10.6014
okota	-10.6015
▁mjomba	-10.6016
▁imebarikiwa	-10.6016
▁mbinguni	-10.6023
ondoke	-10.6026
▁Bongo	-10.6027
▁aliidhinisha	-10.6029
▁Ufalme	-10.6031
▁Timu	-10.6037
▁mzito	-10.6038
▁matano	-10.6043
tendeka	-10.6045
agizaji	-10.6047
kataba	-10.6048
▁kiini	-10.6053
mila	-10.606
▁hususani	-10.6063
▁kutia	-10.6064
▁porini	-10.6069
▁walihamia	-10.6072
▁tete	-10.6082
▁inayopatikana	-10.6085
anzu	-10.6088
tekwa	-10.6095
▁wachambuzi	-10.6103
adamu	-10.6105
▁darasani	-10.6125
ngara	-10.6129
▁kumiliki	-10.6135
ls	-10.6147
nena	-10.615
▁kukomesh	-10.6155
▁waingereza	-10.6169
▁kuwasilisha	-10.617
▁walikuja	-10.6209
▁kuvun	-10.6212
fran	-10.6219
▁Sudana	-10.6225
ster	-10.6228
zanzibari	-10.6251
sambazwa	-10.626
▁win	-10.6261
▁Z	-10.6263
bunge	-10.627
tah	-10.6271
wania	-10.6291
ibiwa	-10.6302
▁huchukua	-10.6304
giriki	-10.6316
bichi	-10.632
▁Miji	-10.6323
▁wataalam	-10.6328
andikia	-10.6333
van	-10.6334
pigaji	-10.6344
nufaika	-10.6345
▁Austria	-10.6345
▁elizabeth	-10.6345
▁mtiririko	-10.6345
▁voire	-10.6345
▁Mustafa	-10.6345
▁Michezo	-10.6345
▁kisarufi	-10.6345
kosekana	-10.6346
▁sensa	-10.6346
▁uhamasishaji	-10.6346
▁karume	-10.6346
▁vichwa	-10.6346
▁manyoya	-10.6346
▁Kambara	-10.6346
kithiri	-10.6346
▁kijiografia	-10.6346
▁Samaki	-10.6346
▁mababu	-10.6346
▁mwandamizi	-10.6346
sogea	-10.6346
▁korea	-10.6346
▁tuhuma	-10.6346
▁Husna	-10.6346
pandisha	-10.6346
▁kiislam	-10.6346
saliti	-10.6347
▁Ruvuma	-10.6347
chelewesh	-10.6348
▁Ngamia	-10.6348
angaziwa	-10.6348
▁kuifanya	-10.6348
▁waumini	-10.6349
akwimu	-10.6349
▁argentina	-10.6351
▁manenomkopo	-10.6353
▁mapendekezo	-10.6355
pinzani	-10.6356
puuza	-10.6357
▁kijivu	-10.6357
▁inajulikana	-10.6357
dondoka	-10.6359
▁vinginevyo	-10.636
sikitisha	-10.636
muomba	-10.636
nyume	-10.6362
▁askofu	-10.6366
changanyika	-10.6367
▁Kombe	-10.6367
konda	-10.6367
cheze	-10.6369
▁mwizi	-10.6369
igizaji	-10.6371
▁arusha	-10.6373
▁stai	-10.6373
▁ghali	-10.6374
angalie	-10.6381
▁hamna	-10.6383
▁Uwepo	-10.6384
malizia	-10.6385
▁Nyasa	-10.6386
nyanyua	-10.6388
▁limetokana	-10.639
▁Mkoani	-10.6391
elekeo	-10.6392
▁Omani	-10.6393
▁rika	-10.6398
amsha	-10.6399
fuasi	-10.64
▁Nyama	-10.641
ishwa	-10.6411
▁mgongoni	-10.6413
▁mamba	-10.6414
▁nyanjani	-10.6418
▁rasi	-10.6419
ZI	-10.642
▁uzima	-10.642
uhudi	-10.642
▁Akili	-10.6423
▁Sam	-10.6425
ul	-10.6426
▁Sera	-10.6428
shikwa	-10.6429
▁yanapatikana	-10.6438
hojiwa	-10.6439
▁zinavyo	-10.6441
▁zinaonyesha	-10.6442
muuliza	-10.6453
rasi	-10.6455
▁kufurahia	-10.6466
▁kiko	-10.6468
nada	-10.6472
▁kubainisha	-10.6478
▁kuvunjika	-10.6479
▁Jana	-10.6486
ainisha	-10.6489
▁eti	-10.6491
▁vipa	-10.6499
▁kubuni	-10.6508
▁tulipo	-10.6512
▁aliitwa	-10.6514
mshinikiza	-10.6517
nyamaza	-10.6518
▁Ange	-10.652
ombe	-10.6573
▁kutangazwa	-10.6588
▁Sif	-10.6595
igiza	-10.6595
▁Yali	-10.6599
thibitish	-10.6601
▁kuibuka	-10.6627
jiuzulu	-10.6627
▁El	-10.6632
sitishwa	-10.6639
▁mijini	-10.6639
▁Kesh	-10.6641
▁hazija	-10.6653
muita	-10.6676
lemavu	-10.668
kusanyiko	-10.6681
▁jaji	-10.6691
nacho	-10.6696
timiza	-10.6701
▁haita	-10.6702
▁Desemba	-10.6703
▁Edward	-10.6703
▁Mkristo	-10.6703
▁Novemba	-10.6703
▁United	-10.6703
▁kimofofonolojia	-10.6703
▁makusudi	-10.6703
▁plastiki	-10.6703
▁spesifaya	-10.6703
▁Maasai	-10.6703
▁mekundu	-10.6703
tetemeka	-10.6703
angamiza	-10.6703
▁robert	-10.6703
hamishiwa	-10.6703
▁Wabantu	-10.6703
▁kampala	-10.6703
lalamikia	-10.6703
▁kiarabu	-10.6703
▁punde	-10.6703
▁mchumba	-10.6703
▁mombasa	-10.6703
▁mshambuliaji	-10.6703
▁duru	-10.6703
▁iringa	-10.6703
▁mvuto	-10.6703
▁Kweli	-10.6703
pandwa	-10.6703
▁urusi	-10.6704
▁wawekezaji	-10.6704
▁matiti	-10.6704
▁wizi	-10.6704
ikolojia	-10.6705
kusanyika	-10.6705
▁msiba	-10.6705
▁Huduma	-10.6707
▁tamko	-10.6707
▁mapango	-10.6708
aida	-10.6708
▁Akizungumza	-10.6708
pachika	-10.671
▁ikilinganishwa	-10.671
▁kiingereza	-10.6711
▁Khamisi	-10.6711
▁kitanda	-10.6713
jenge	-10.6713
adhibu	-10.6713
▁kujionea	-10.6713
▁Bali	-10.6719
nze	-10.672
▁ukiangalia	-10.6725
danganya	-10.6728
▁mchele	-10.6729
tazamo	-10.6729
kakati	-10.6732
tendaji	-10.6733
nyolewa	-10.6734
bariki	-10.6735
▁For	-10.6735
▁Alhamisi	-10.6735
▁Imani	-10.6739
▁kuchunguzwa	-10.6749
atizo	-10.6751
stan	-10.6753
▁mazoea	-10.6753
elezewa	-10.676
▁mfuga	-10.6761
▁inawezekana	-10.6764
nukuu	-10.6767
▁aliyewahi	-10.6772
▁Wahind	-10.6779
kaazi	-10.6782
▁wamisionari	-10.6789
▁Kole	-10.6793
▁kaji	-10.6793
penzi	-10.68
ombea	-10.6807
▁Inaweza	-10.6807
ser	-10.6811
fupi	-10.6811
▁kilichopo	-10.6813
▁kuhamasisha	-10.6819
▁chapati	-10.6828
▁tani	-10.6829
shughulikiwa	-10.6829
▁uvi	-10.6835
▁tata	-10.6835
▁kuhudhuria	-10.6835
▁kukamilika	-10.6838
lianzisha	-10.6846
▁kuzikwa	-10.6853
▁mmea	-10.686
▁kanisani	-10.6874
vuma	-10.6888
▁kona	-10.689
▁Huwa	-10.6891
mkumbuka	-10.6902
▁miamba	-10.6903
▁nyinginezo	-10.691
▁hauja	-10.6911
linganisha	-10.6915
eno	-10.6915
▁aliongeza	-10.6953
▁Kisa	-10.6965
haki	-10.6968
▁MA	-10.6977
▁muongo	-10.6986
inuka	-10.699
mpatia	-10.6992
semi	-10.6993
nuka	-10.6993
▁hatuku	-10.7
bana	-10.7006
tolea	-10.7008
wanafunzi	-10.7009
kusany	-10.7011
bur	-10.7014
lazwa	-10.7017
▁inahitaji	-10.7019
▁tungo	-10.702
▁kiasili	-10.7021
jeruhiwa	-10.703
mwacha	-10.7032
kaliwa	-10.7034
tikisa	-10.7037
▁anajulikana	-10.7038
katika	-10.704
▁Oman	-10.7052
melea	-10.706
fuatiwa	-10.7068
fafanuliwa	-10.7073
thubutu	-10.7073
▁Fonolojia	-10.7073
▁Kimakunduchi	-10.7073
▁Zimamoto	-10.7073
▁dhuluma	-10.7073
▁kienyeji	-10.7073
▁kimazingira	-10.7073
▁maagizo	-10.7073
▁ruhusa	-10.7073
▁arubaini	-10.7073
▁sambamba	-10.7073
▁bustani	-10.7073
jumlisha	-10.7073
▁kasoro	-10.7073
▁lisilo	-10.7073
▁somalia	-10.7073
▁mishipa	-10.7073
▁Nafasi	-10.7073
▁vema	-10.7073
▁Sanifu	-10.7073
▁mwafaka	-10.7073
▁ureno	-10.7074
▁mzigo	-10.7074
▁wivu	-10.7074
▁siagi	-10.7074
▁York	-10.7074
▁asasi	-10.7074
▁Siasa	-10.7074
▁kielelezo	-10.7074
sababishi	-10.7074
vamiwa	-10.7074
▁kipimo	-10.7074
▁wahalifu	-10.7074
changanua	-10.7075
▁nyengine	-10.7075
▁noti	-10.7075
punguzwa	-10.7075
▁Ushirikian	-10.7075
sadiki	-10.7076
▁ngambo	-10.7077
chafua	-10.7077
tangulizi	-10.7077
▁taarabu	-10.7078
▁Ubelgiji	-10.7082
amuru	-10.7089
▁mwanamuziki	-10.709
▁pro	-10.7099
▁Pla	-10.7101
▁usemi	-10.7101
chapisha	-10.7103
▁utangazaji	-10.7103
▁utotoni	-10.7105
▁bega	-10.7109
siozidi	-10.7109
▁Swali	-10.7111
▁ustawi	-10.7112
▁walikamatwa	-10.7115
jitolea	-10.7124
▁Mtakatifu	-10.7124
angusha	-10.7134
▁kujihami	-10.7135
hahada	-10.7141
▁Yanga	-10.7143
yaona	-10.7143
▁Mbati	-10.7149
▁kulinganisha	-10.715
▁tumaini	-10.715
▁puani	-10.7154
▁yaliyotokea	-10.7158
▁mwambao	-10.7159
fikie	-10.7163
▁Balo	-10.7164
▁Aliendelea	-10.7164
▁Nja	-10.7165
semekana	-10.7166
▁kujifungua	-10.7166
Kwa	-10.7166
kabidhiwa	-10.7168
▁sala	-10.7176
shehen	-10.7177
▁uzazi	-10.7177
suka	-10.7181
lizokuwa	-10.7206
sahaulika	-10.7208
zidisha	-10.7211
▁kadi	-10.7213
▁kuwakamata	-10.7227
▁mapa	-10.7227
▁vikiwa	-10.7231
idhinisha	-10.7234
chuku	-10.7249
▁aliondoka	-10.7251
limwa	-10.7252
▁Swal	-10.7263
▁Moi	-10.7279
adhifa	-10.7287
bra	-10.7303
ngili	-10.7306
fahamisha	-10.7315
hema	-10.7337
kw	-10.7349
▁aliou	-10.7357
▁kumekuwa	-10.7357
taraji	-10.736
▁lilipo	-10.7361
▁kumbuka	-10.7374
lingana	-10.7379
kunywa	-10.7394
▁Ndo	-10.7414
NA	-10.7421
tishwa	-10.7435
teule	-10.7439
komunisti	-10.7444
epusha	-10.7453
▁anajua	-10.7454
▁zinge	-10.7456
▁Fidel	-10.7458
▁Ghafla	-10.7458
▁Kisovyeti	-10.7458
▁Manispaa	-10.7458
▁Msemakweli	-10.7458
▁Teknolojia	-10.7458
▁Zumbukuku	-10.7458
▁ijumaa	-10.7458
▁ipasavyo	-10.7458
▁kieneo	-10.7458
▁kijerumani	-10.7458
▁kristo	-10.7458
▁mabaharia	-10.7458
poromoka	-10.7458
▁kiakili	-10.7458
▁kifahari	-10.7458
▁manjano	-10.7458
▁unyevu	-10.7458
▁Benjamin	-10.7458
▁madume	-10.7458
▁urafiki	-10.7458
▁Tayari	-10.7458
▁Ukweli	-10.7458
▁hamira	-10.7458
▁uhamiaji	-10.7458
▁jedwali	-10.7458
▁Patric	-10.7458
▁bwawa	-10.7459
▁jingine	-10.7459
▁ujana	-10.7459
tobo	-10.746
▁mbona	-10.746
tabibu	-10.7464
kumbuke	-10.7465
▁Anton	-10.7465
▁wabena	-10.7466
▁Wamatumbi	-10.7467
semwa	-10.7467
▁nyara	-10.7468
▁mjadala	-10.7471
▁midogo	-10.7471
▁hindi	-10.7472
▁ufafanuzi	-10.7473
▁Picha	-10.7474
riadha	-10.7474
▁kikanda	-10.7474
▁mafupi	-10.7476
▁Ugiriki	-10.7477
▁bendi	-10.7478
▁Ngara	-10.7479
▁matata	-10.7481
▁Dhi	-10.7481
▁Ngozi	-10.7483
▁anacho	-10.7486
▁ulemavu	-10.7486
▁Mbeg	-10.7493
▁Lindi	-10.7495
ngwi	-10.7504
▁atakapo	-10.7509
▁Imekuwa	-10.7512
kwi	-10.7517
▁Manchester	-10.7519
▁alikamatwa	-10.7534
▁hatuna	-10.7534
fikika	-10.7534
tajiri	-10.7539
▁lenyewe	-10.754
▁Soko	-10.7546
▁kumuuliza	-10.7548
▁linge	-10.7549
▁hesabu	-10.7555
▁Hawaku	-10.7561
▁kuchemsha	-10.7565
umwa	-10.7575
▁kutibiwa	-10.7589
▁zinazoendelea	-10.7589
▁waliopo	-10.7598
▁Jaji	-10.7604
▁huathirika	-10.7641
▁alikubali	-10.7643
lipewa	-10.7645
▁mak	-10.7648
▁hio	-10.7652
tendo	-10.766
susi	-10.7672
▁shauri	-10.7686
▁hutolewa	-10.7689
biki	-10.7699
▁kufariki	-10.77
▁walishinda	-10.7709
▁jibu	-10.7714
▁Acha	-10.7721
▁kibo	-10.7726
jifungua	-10.7738
▁imeanza	-10.7744
rundi	-10.7766
kutwa	-10.7767
mwomba	-10.7769
hadi	-10.7773
▁Sita	-10.7776
zingati	-10.7789
▁kutwa	-10.7795
hispania	-10.78
magharibi	-10.7813
▁Mwanzo	-10.7817
▁Alhamis	-10.7821
dan	-10.7835
atibabu	-10.7836
▁Africa	-10.7846
▁Vina	-10.7851
▁uwazi	-10.7854
uguvugu	-10.7857
nusurika	-10.7858
▁Mwingereza	-10.7858
▁aghalabu	-10.7858
▁bagamoyo	-10.7858
▁kinyanganyiro	-10.7858
▁mviringo	-10.7858
▁usahihi	-10.7858
▁msalaba	-10.7858
▁Shilingi	-10.7858
▁Simiyu	-10.7858
▁kurahisisha	-10.7858
▁sekunde	-10.7858
▁tovuti	-10.7858
▁ukabila	-10.7858
tunukiwa	-10.7858
▁Rahma	-10.7858
▁benjamin	-10.7858
▁messi	-10.7858
▁Luteni	-10.7858
▁kuokolea	-10.7858
dhoofika	-10.7858
▁Malengo	-10.7858
▁uchawi	-10.7858
▁uchovu	-10.7858
▁Uwanja	-10.7858
▁adimu	-10.7858
▁feri	-10.7858
▁uaminifu	-10.7858
▁Masewa	-10.7858
▁kusudi	-10.7858
▁vijidudu	-10.7858
▁Makame	-10.7858
▁isimila	-10.7859
▁mkwawa	-10.7859
▁vyumba	-10.7859
▁upeo	-10.786
▁ngeli	-10.786
▁mwendesha	-10.786
▁victoria	-10.7862
ajonzi	-10.7862
▁Kilele	-10.7864
ridhishwa	-10.7865
▁woga	-10.7865
▁shukrani	-10.7867
▁likiongozwa	-10.7867
▁gumu	-10.7874
▁Tumwa	-10.7874
ambulia	-10.7874
gongo	-10.7874
▁aliyeambukizwa	-10.7876
▁Sabato	-10.7877
▁kuathirika	-10.7879
llah	-10.788
▁mlinzi	-10.788
▁Mwanangu	-10.7881
▁Kaunda	-10.7882
▁kor	-10.7883
▁moshi	-10.7884
▁kifalme	-10.7886
▁dhiki	-10.7889
▁sote	-10.7889
▁ovyo	-10.789
▁maovu	-10.789
▁kipaji	-10.7891
▁milango	-10.7893
▁Nape	-10.7899
chomwa	-10.79
▁cheti	-10.79
singizi	-10.7901
▁asidi	-10.7904
▁vilianza	-10.7913
▁uliofanyika	-10.7917
▁tanga	-10.7921
▁yanayopatikana	-10.7927
▁kuingizwa	-10.7931
kaidi	-10.7935
▁refu	-10.7944
▁Naam	-10.7947
▁jaka	-10.7953
▁kutoroka	-10.7954
▁aende	-10.7969
feli	-10.7972
▁yalitokea	-10.7974
▁utahitaji	-10.7976
▁Aliandika	-10.7977
▁General	-10.7978
▁radi	-10.7984
chambua	-10.7985
▁upate	-10.7987
▁kushindana	-10.7988
▁kifungu	-10.7989
▁Wanaweza	-10.7991
domo	-10.7994
▁kuchochea	-10.8007
▁Yako	-10.8014
▁wanacheza	-10.8019
▁Uwez	-10.8032
andalia	-10.8037
▁walitoka	-10.8046
uala	-10.8057
▁Bush	-10.8057
▁zinazoweza	-10.8057
▁mtandaoni	-10.8079
kiuka	-10.8089
shamba	-10.81
▁jam	-10.8104
▁kanga	-10.8107
rekodi	-10.8117
twi	-10.813
▁kushuhudia	-10.8134
kushukuru	-10.8135
▁Ze	-10.8135
▁Moto	-10.814
▁Mwend	-10.8144
rufu	-10.8145
duma	-10.8146
▁nju	-10.8146
▁amerudi	-10.8155
▁kaya	-10.817
batilish	-10.8174
jipanga	-10.8192
pumua	-10.8203
ingizwa	-10.8203
heri	-10.8206
pare	-10.8221
▁salam	-10.8221
pindua	-10.8222
shairi	-10.8232
pumzika	-10.8233
mwezesha	-10.824
pangilio	-10.8253
▁Petro	-10.8254
▁abu	-10.8256
▁thelu	-10.826
pungufu	-10.8261
▁chembe	-10.827
▁Abdalla	-10.8271
shughulika	-10.8274
▁Argentina	-10.8274
▁Felix	-10.8274
▁Hitler	-10.8274
▁Kilomita	-10.8274
▁Viktoria	-10.8274
▁chelsea	-10.8274
▁mashambulio	-10.8274
▁msamiati	-10.8274
▁Selemani	-10.8274
▁Yohane	-10.8274
▁ireland	-10.8274
▁ndogondogo	-10.8274
hitimisha	-10.8274
▁Berlin	-10.8274
▁Jabir	-10.8274
▁mwingiliano	-10.8274
▁faraja	-10.8274
▁mishahara	-10.8274
▁malaika	-10.8274
▁mshangao	-10.8274
▁makaburi	-10.8274
▁Uongozi	-10.8274
▁maandiko	-10.8274
▁mapokeo	-10.8274
▁Matemo	-10.8274
▁sawia	-10.8275
▁Wakenya	-10.8275
▁maabara	-10.8275
▁makocha	-10.8275
rutubish	-10.8276
▁mashaka	-10.8276
nunuliwa	-10.8276
▁Masai	-10.8276
changanywa	-10.8277
▁Kenne	-10.8277
▁Ardhi	-10.8278
▁waimbaji	-10.8279
▁Vifo	-10.828
alikwa	-10.8282
pondwa	-10.8283
▁maadhimisho	-10.8283
kohoa	-10.8283
▁mwimbaji	-10.8284
akadiri	-10.8285
jambazi	-10.8285
▁mifuko	-10.8287
▁mwanasheria	-10.8287
▁mwangaza	-10.8287
okali	-10.829
apigano	-10.8291
▁kimila	-10.8292
▁Majaliwa	-10.8293
pingwa	-10.8297
▁Maswal	-10.83
▁kero	-10.8304
▁Songea	-10.8304
chinja	-10.8306
▁ufupi	-10.8306
▁nafuu	-10.8309
▁kugusana	-10.8309
▁ubunge	-10.8309
▁Majengo	-10.8309
gombe	-10.831
▁kijiko	-10.8311
▁alimuuliza	-10.8314
▁Mkongwe	-10.8314
▁kisasi	-10.8317
futwa	-10.8318
▁fisi	-10.8318
fananisha	-10.8321
▁zinahitaji	-10.8321
hangaika	-10.8324
linzi	-10.8326
senet	-10.8328
▁ukulima	-10.8332
nyoosh	-10.8332
▁anaaminika	-10.8337
▁Wasambaa	-10.8337
▁Bha	-10.8337
▁hupendelea	-10.8343
shanga	-10.8349
▁Ghar	-10.8353
▁Ndoa	-10.8354
▁makuta	-10.8362
▁pele	-10.8366
wepesi	-10.8367
▁nyani	-10.8377
bungo	-10.838
▁Watumwa	-10.8387
sajiliwa	-10.8392
▁mateka	-10.8398
▁aliyeitwa	-10.8401
funza	-10.8406
▁alishiriki	-10.8417
▁kusaidiana	-10.8417
▁wanapokuwa	-10.8417
▁kuamka	-10.842
▁hujitokeza	-10.8427
ssan	-10.843
▁uelewa	-10.8434
andamanaji	-10.8444
vuja	-10.8448
tuliza	-10.8455
▁kujiandaa	-10.8457
▁kuharibika	-10.846
▁kusaka	-10.8462
▁kukamilisha	-10.8462
▁imekua	-10.8466
▁alimpa	-10.8471
pima	-10.8478
azeti	-10.8481
sibu	-10.8484
nguliwa	-10.8484
peke	-10.8485
port	-10.8492
▁huongeza	-10.8503
▁Yana	-10.8509
▁zinasema	-10.8509
nadamu	-10.8512
angalizi	-10.852
▁vitamu	-10.8544
▁Joe	-10.8546
▁mwangu	-10.855
chota	-10.8554
buyu	-10.8554
▁ste	-10.8555
muunga	-10.8555
▁waliamini	-10.859
akisi	-10.8603
akikisha	-10.8612
▁ben	-10.8624
▁waliwau	-10.8628
faransa	-10.8634
pisha	-10.8642
binafsi	-10.8651
jeruhi	-10.867
liyemfuata	-10.8674
sisitiz	-10.8682
▁machafu	-10.8693
adili	-10.8702
jitambulisha	-10.8707
entensi	-10.8707
usu	-10.8708
▁Afghanistan	-10.8709
▁Azimio	-10.8709
▁Khartoum	-10.8709
▁Njombe	-10.8709
▁Walutheri	-10.8709
▁africa	-10.8709
▁ghorofa	-10.8709
▁kifonetiki	-10.8709
▁milimita	-10.8709
▁muonekano	-10.8709
▁upendeleo	-10.8709
teketez	-10.8709
▁Russia	-10.8709
▁kiufundi	-10.8709
▁matambiko	-10.8709
▁Iraq	-10.8709
▁Bendera	-10.8709
▁uwiano	-10.8709
geukia	-10.8709
▁hekima	-10.8709
▁madaraja	-10.8709
▁kijalizo	-10.8709
▁Ekenge	-10.8709
▁Uhindi	-10.8709
▁Njoo	-10.8709
fereji	-10.8709
▁Bukoba	-10.8709
▁masikini	-10.8709
▁ufukwe	-10.8709
▁Osama	-10.8709
▁Kimeru	-10.8709
▁Wadigo	-10.8709
▁ukusanyaji	-10.8709
▁Nyota	-10.8709
▁kopaji	-10.8709
▁wimbi	-10.8709
▁rufaa	-10.8709
▁mpunga	-10.8709
▁vumbi	-10.8709
▁Taabu	-10.8709
▁nyuki	-10.8709
▁mpito	-10.8709
▁sigara	-10.871
▁utegemeaji	-10.871
pokelewa	-10.871
▁kiwele	-10.871
▁Fred	-10.871
▁Matata	-10.871
manyema	-10.8712
▁Kamerun	-10.8712
▁palipo	-10.8714
▁Ngom	-10.8714
▁Jean	-10.8718
▁bingwa	-10.872
▁kupona	-10.872
▁uchambuzi	-10.8721
▁Fumo	-10.8721
▁michoro	-10.8722
▁jasho	-10.8723
nunuzi	-10.8724
▁kikomunisti	-10.8724
reka	-10.8727
▁mapacha	-10.8728
mwagika	-10.8728
▁utumbo	-10.8728
▁lawama	-10.8729
▁Van	-10.8733
udhi	-10.8734
▁jiko	-10.8735
▁mpinzani	-10.8736
tangazia	-10.874
wanamuke	-10.874
▁walendu	-10.8741
kongo	-10.8743
▁Niger	-10.8745
chukue	-10.8745
▁bote	-10.8747
▁waliwauwa	-10.875
▁gerezani	-10.8753
moto	-10.8756
▁Makazi	-10.876
▁manane	-10.8769
pinda	-10.877
▁walifariki	-10.8776
▁tezi	-10.8782
lijaribu	-10.879
▁beti	-10.8794
▁vimeripoti	-10.8798
akinda	-10.88
▁kujitolea	-10.8805
▁inabidi	-10.8807
▁kupanua	-10.8815
▁kambo	-10.8818
▁tabu	-10.8818
▁kifuani	-10.8825
▁waliowahi	-10.8826
▁Usafi	-10.8831
ingiliana	-10.8832
▁kisima	-10.8832
▁kumpeleka	-10.8834
▁chaguzi	-10.8838
▁mamangu	-10.8841
▁mtaji	-10.8844
paswi	-10.8844
▁likawa	-10.8858
kaanga	-10.8872
▁kukodi	-10.8877
▁Biko	-10.8877
arafa	-10.8898
▁Yaliyo	-10.8902
▁kumwona	-10.8904
▁alimaliza	-10.8906
▁Machel	-10.8911
▁kujihusisha	-10.8911
▁alijitokeza	-10.8914
tunzi	-10.8915
▁Kisu	-10.8953
elfu	-10.8958
fumba	-10.8982
KI	-10.8985
▁yanahitaji	-10.8997
▁Haji	-10.9008
▁tukiwa	-10.9013
umbwa	-10.9028
menya	-10.9031
utumu	-10.9035
anachama	-10.9041
▁Salim	-10.905
milikiwa	-10.9081
rekebisha	-10.9087
jihami	-10.909
tania	-10.909
kataliwa	-10.9094
▁upele	-10.9094
biashara	-10.9106
▁gereza	-10.9117
binti	-10.9123
chunga	-10.9132
audhui	-10.9142
simamo	-10.9145
zungumzwa	-10.9157
nasheria	-10.9158
▁nta	-10.9158
afunzo	-10.9161
Qaeda	-10.9164
nufaisha	-10.9164
pinduliwa	-10.9164
▁Aghalabu	-10.9164
▁Munyigumba	-10.9164
▁Tripoli	-10.9164
▁fonolojia	-10.9164
▁kidigitali	-10.9164
▁kipindupindu	-10.9164
▁madhubuti	-10.9164
▁malalamiko	-10.9164
▁masimulizi	-10.9164
▁mtanzania	-10.9164
▁wenzetu	-10.9164
▁David	-10.9164
▁Siberia	-10.9164
▁jumanne	-10.9164
▁kitaaluma	-10.9164
▁tasnia	-10.9164
▁ufunguzi	-10.9164
▁Qu	-10.9164
▁sanduku	-10.9164
▁Mwavita	-10.9164
▁buibui	-10.9164
▁machungwa	-10.9164
▁dirisha	-10.9164
▁maonyesho	-10.9164
▁Kihindi	-10.9164
▁penati	-10.9164
▁zitakazo	-10.9164
▁Video	-10.9164
onekane	-10.9164
que	-10.9164
▁Uvuvi	-10.9164
▁supu	-10.9164
▁bandia	-10.9164
ihusishi	-10.9164
▁Wachaga	-10.9164
▁idhini	-10.9164
▁flav	-10.9164
▁protini	-10.9164
▁mikopo	-10.9164
▁kutegemewa	-10.9164
fufuliwa	-10.9164
▁madoa	-10.9165
▁tauni	-10.9165
▁Mwene	-10.9165
shindikana	-10.9165
▁kimapenzi	-10.9165
chungaji	-10.9165
pitiwa	-10.9165
▁Bosco	-10.9165
▁mkazo	-10.9165
▁Awamu	-10.9165
▁Mawazo	-10.9165
▁watumishi	-10.9165
▁malazi	-10.9166
▁Umma	-10.9166
ongelea	-10.9167
▁Majimaji	-10.9167
▁sikio	-10.9167
▁ukilinganisha	-10.9168
▁ulaji	-10.9168
▁kuiga	-10.9169
▁mwenzangu	-10.917
▁kujiepusha	-10.917
▁sabuni	-10.917
▁kurima	-10.917
▁vikombe	-10.9171
▁Kilatini	-10.9171
▁adabu	-10.9171
▁mivutano	-10.9172
tupwa	-10.9173
dine	-10.9173
shuku	-10.9174
▁and	-10.9174
tayarishwa	-10.9176
jikaza	-10.918
▁Kauli	-10.918
changiwa	-10.9184
▁Mbuga	-10.9187
▁miungu	-10.919
ller	-10.919
▁jumba	-10.9194
▁Nyanya	-10.9194
pteni	-10.9194
▁Ndu	-10.9197
▁nyati	-10.9197
▁kumlinda	-10.9201
jidhihirisha	-10.9202
▁mganga	-10.9204
lipuka	-10.9205
▁bomba	-10.9208
▁Subir	-10.9209
▁inaunga	-10.9211
▁kitamu	-10.9211
takia	-10.9214
▁Ben	-10.9217
▁amefariki	-10.9218
▁KU	-10.9218
▁shina	-10.9219
tafute	-10.922
▁hisa	-10.922
▁Kando	-10.9226
▁aah	-10.9226
▁yanayosababisha	-10.923
▁kizungu	-10.9237
▁Wakuu	-10.9245
kuyu	-10.9246
▁Toko	-10.9246
▁kubadilishana	-10.9247
▁hakujua	-10.9252
▁zinazopatikana	-10.9256
rembo	-10.9261
▁kinywani	-10.9264
iego	-10.9273
wadia	-10.928
▁kw	-10.928
▁kurekodi	-10.9283
▁vilivyopo	-10.9288
▁umiliki	-10.9295
▁mamalia	-10.9299
▁akiishi	-10.9318
shirikishwa	-10.9329
▁yakawa	-10.9337
▁walishindwa	-10.9339
▁mwishowe	-10.936
▁Mume	-10.9361
mpigia	-10.937
labu	-10.9376
mpeleka	-10.9381
ongez	-10.9388
tupatia	-10.9404
▁haiti	-10.941
▁mikuk	-10.9413
▁tulivyo	-10.9416
sumb	-10.9423
kombe	-10.9433
wamuzi	-10.9468
▁Fik	-10.9472
vumili	-10.9484
▁Rai	-10.9509
ther	-10.9536
▁Waasi	-10.955
▁ukiuk	-10.9551
mkabili	-10.9576
ungano	-10.9581
▁ilizindu	-10.9595
harusi	-10.9597
YA	-10.9599
uchumi	-10.9599
▁maktaba	-10.96
▁Israel	-10.9604
kwambia	-10.9605
yahudi	-10.9608
▁Hatima	-10.9635
▁kibao	-10.9639
tiririka	-10.964
▁Daisy	-10.964
▁Ibrahim	-10.964
▁Kimsingi	-10.964
▁Makumbusho	-10.964
▁Sekondari	-10.964
▁Waanglikana	-10.964
▁afadhali	-10.964
▁azimio	-10.964
▁city	-10.964
▁ferguson	-10.964
▁kimaasai	-10.964
▁manyanyaso	-10.964
▁mofolojia	-10.964
▁unyevunyevu	-10.964
▁utambulisho	-10.964
▁vipodozi	-10.964
▁Abdullah	-10.964
▁Mawaziri	-10.964
▁alfajiri	-10.964
▁neema	-10.964
▁suluhisho	-10.964
▁Ghuba	-10.964
▁maandalizi	-10.964
omboleza	-10.964
▁kibantu	-10.964
▁twende	-10.964
▁Nyimbo	-10.964
▁Rufiji	-10.964
▁zahanati	-10.964
zoeleka	-10.964
▁upumuaji	-10.964
▁nyuso	-10.964
▁Harusi	-10.964
▁mpiganaji	-10.964
jumuika	-10.964
▁kikatili	-10.964
▁viboko	-10.964
▁Nuru	-10.964
tanguliza	-10.964
▁madola	-10.964
▁Misitu	-10.964
▁kamera	-10.964
zalishwa	-10.964
▁pokezi	-10.964
teseka	-10.964
▁zuma	-10.964
▁kisaikolojia	-10.9641
shamiri	-10.9641
▁Vivutio	-10.9641
akelele	-10.9641
tiliwa	-10.9641
▁kingereza	-10.9642
▁kilwa	-10.9642
vumbuzi	-10.9642
shangazwa	-10.9642
▁pumu	-10.9642
▁india	-10.9642
▁mpana	-10.9642
▁Mazoa	-10.9643
▁chaguo	-10.9643
▁Madini	-10.9644
ford	-10.9645
▁Kiluguru	-10.9645
▁kikomo	-10.9646
▁kimaisha	-10.9647
▁Uluguru	-10.9648
▁Kilicho	-10.9648
tengeneze	-10.965
▁Senet	-10.9651
▁Usultani	-10.9651
▁hawapendi	-10.9651
tahiri	-10.9652
▁Hotel	-10.9652
▁Zama	-10.9654
▁jando	-10.9654
inuko	-10.9658
tengeza	-10.9658
▁sakafuni	-10.9659
▁mbovu	-10.966
agizwa	-10.966
▁tija	-10.9664
jomba	-10.9664
iumbe	-10.9664
dundo	-10.9665
▁Hasada	-10.9666
▁Kinacho	-10.9668
▁uangalizi	-10.967
▁fuvu	-10.967
▁kitoto	-10.967
▁ushairi	-10.967
▁zilitengenezwa	-10.9672
▁mapana	-10.9675
▁Wakoloni	-10.968
▁aliamuru	-10.9682
jisikia	-10.9682
▁for	-10.9684
funguli	-10.9684
▁Hip	-10.9685
▁Kondoa	-10.9688
▁mrithi	-10.9689
▁uhandisi	-10.969
▁inayofanywa	-10.97
▁wanakabiliwa	-10.9701
▁Shu	-10.9703
▁kalenda	-10.9711
▁bya	-10.9712
▁Waganda	-10.9714
▁unafikiri	-10.9714
▁nenda	-10.9718
▁kurekebisha	-10.9721
▁upole	-10.9725
▁ikaanza	-10.9727
▁hauta	-10.9732
yakula	-10.9732
shitakiwa	-10.9733
W	-10.9735
▁panya	-10.9742
▁kusitishwa	-10.9743
▁mengineyo	-10.9748
▁hugeuka	-10.9751
▁Bodi	-10.9753
takumbukwa	-10.9767
▁utaona	-10.9777
▁shingoni	-10.9784
▁sivyo	-10.9785
zinduliwa	-10.9797
▁waliopewa	-10.98
▁tunayo	-10.98
▁ndoo	-10.9801
▁upanga	-10.9805
tukuza	-10.9806
▁mkwe	-10.9811
▁lilisema	-10.9822
▁mshirik	-10.9827
▁kujitoa	-10.983
mwangalia	-10.9831
aharagwe	-10.9832
saidi	-10.9835
▁Paka	-10.9841
endelezwa	-10.9846
pambwa	-10.9849
▁wo	-10.985
sukum	-10.986
nayohusu	-10.9871
kunja	-10.9888
▁Tukio	-10.9894
amon	-10.9902
▁fungu	-10.9926
▁Mtaa	-10.994
▁kuitumia	-10.9947
idhinishwa	-10.9955
▁Haiku	-10.9957
mechoka	-10.996
dhibitisha	-10.9978
kataza	-10.9999
yanzo	-11.0007
ILI	-11.0042
vunji	-11.0045
jiwekea	-11.0045
▁utashi	-11.0047
fuzu	-11.0068
▁Unapo	-11.007
adhiri	-11.0072
geuzwa	-11.0075
IA	-11.0088
gavana	-11.0095
Katika	-11.0095
haribi	-11.0121
subuhi	-11.0124
diplomasia	-11.0126
onyesh	-11.0134
wanamume	-11.0134
hatarish	-11.0138
SHIRI	-11.014
dhulumu	-11.014
heshimika	-11.014
zungumziwa	-11.014
▁Gaddafi	-11.014
▁Isitoshe	-11.014
▁Kaisari	-11.014
▁Mediteranea	-11.014
▁dhoruba	-11.014
▁kitropiki	-11.014
▁maigizo	-11.014
▁malighafi	-11.014
▁mkombozi	-11.014
▁monasteri	-11.014
▁muktadha	-11.014
▁rutuba	-11.014
▁upanuzi	-11.014
▁vyovyote	-11.014
▁yaliongezewa	-11.014
▁mwenendo	-11.014
▁Nyumbu	-11.014
▁kopeshi	-11.014
▁maelekezo	-11.014
▁mofimu	-11.014
▁Tsavo	-11.014
nusuru	-11.014
▁Olonana	-11.014
▁uzamili	-11.014
farakano	-11.014
▁vijavyo	-11.014
▁utambuzi	-11.014
▁Sauda	-11.014
▁Mumbui	-11.014
▁Radio	-11.014
▁pembezoni	-11.014
▁Kondoo	-11.014
kusudia	-11.014
▁metali	-11.014
tosheleza	-11.014
▁unyago	-11.014
▁utengenezaji	-11.014
▁vitunguu	-11.014
▁misuli	-11.014
▁mandela	-11.014
▁mashitaka	-11.014
▁sahani	-11.014
▁majuzi	-11.014
▁sinema	-11.014
▁kaboni	-11.014
▁njama	-11.014
▁nyeti	-11.014
▁manyara	-11.0141
▁mioyo	-11.0141
tendwa	-11.0141
▁chambavu	-11.0141
▁waziwazi	-11.0141
▁ubaya	-11.0141
▁kiwanda	-11.0142
▁fahari	-11.0142
▁fidia	-11.0142
▁maafa	-11.0143
▁mwananchi	-11.0144
shikiliwa	-11.0144
▁Pier	-11.0144
halalish	-11.0145
HE	-11.0145
jibizan	-11.0145
furika	-11.0147
▁Jumbe	-11.015
▁hajui	-11.0153
▁Michael	-11.0153
▁wanaoshukiwa	-11.0154
▁Mapenzi	-11.0157
▁Nywel	-11.016
▁utukufu	-11.0162
▁samia	-11.0162
jaaliwa	-11.0163
▁liwe	-11.0166
▁uweze	-11.0166
▁theluji	-11.0167
gulu	-11.0168
▁sultani	-11.017
▁Makundi	-11.0172
▁iweze	-11.0174
▁insha	-11.0174
▁salamu	-11.0177
▁Vijijini	-11.0179
▁kinachojulikana	-11.018
amuel	-11.0184
ereva	-11.0186
▁maktabani	-11.0189
tizama	-11.0189
▁jikoni	-11.0194
▁Maua	-11.0201
▁nakala	-11.0207
▁linaish	-11.0215
▁mezani	-11.0239
▁itaendelea	-11.0241
▁Rap	-11.0252
rick	-11.0255
▁ikitokea	-11.0261
▁Majibu	-11.0265
▁masai	-11.0268
unju	-11.027
▁kozi	-11.0273
▁angekuwa	-11.0301
mekwisha	-11.0304
▁yanayoathiri	-11.0332
yoyo	-11.0332
nasiasa	-11.0379
kolea	-11.0388
▁Op	-11.0396
sukwa	-11.0401
itika	-11.0415
lishambulia	-11.0437
napofika	-11.044
▁Jari	-11.0457
Utaratibu	-11.0459
mkamata	-11.0466
▁Rose	-11.0477
nunu	-11.0479
▁Viten	-11.0505
der	-11.0515
cia	-11.0518
▁Kip	-11.0526
burudisha	-11.0538
▁Sikuku	-11.0555
amkia	-11.0574
by	-11.0577
bunifu	-11.058
muhimu	-11.0596
wasiliana	-11.0609
▁Cap	-11.0611
wanahabari	-11.0622
nyanyu	-11.0626
JI	-11.0627
feministi	-11.0648
haribifu	-11.0651
shtaki	-11.0655
changanyikiwa	-11.0666
▁Aleksandria	-11.0666
▁Botswana	-11.0666
▁Gilmore	-11.0666
▁Kihistoria	-11.0666
▁Kinjekitile	-11.0666
▁Mawasiliano	-11.0666
▁Ottoman	-11.0666
▁Septemba	-11.0666
▁Wazigua	-11.0666
▁Yerusalemu	-11.0666
▁democra	-11.0666
▁februari	-11.0666
▁gaddafi	-11.0666
▁kimaendeleo	-11.0666
▁mienendo	-11.0666
▁tafadhali	-11.0666
▁umasikini	-11.0666
▁coast	-11.0666
▁iwezekanavyo	-11.0666
▁muingiliano	-11.0666
▁ruaha	-11.0666
▁jumapili	-11.0666
▁mjukuu	-11.0666
▁Furaha	-11.0666
▁leseni	-11.0666
▁matembezi	-11.0666
▁mihogo	-11.0666
▁Namibia	-11.0666
▁zidane	-11.0666
▁Daudi	-11.0666
▁upekee	-11.0666
▁Dubai	-11.0666
▁utumishi	-11.0666
pendelewa	-11.0666
▁sadaka	-11.0666
laghai	-11.0666
▁Swahili	-11.0666
▁kimbunga	-11.0666
▁Wanyamapori	-11.0666
▁athira	-11.0666
▁ukarimu	-11.0666
▁Abha	-11.0666
▁Meskhetian	-11.0666
▁mtego	-11.0666
▁wajukuu	-11.0666
▁kamusi	-11.0667
▁vuguvugu	-11.0667
Burhan	-11.0667
▁Eugen	-11.0667
▁neva	-11.0667
chemka	-11.0667
▁Magari	-11.0667
▁madeni	-11.0667
▁emanuel	-11.0668
▁mkaba	-11.0669
dhamiri	-11.0669
tetemeko	-11.0669
monaki	-11.0669
zuiliwa	-11.0671
▁Rafiki	-11.0671
▁Paris	-11.0673
▁wachaga	-11.0675
▁Wanyakyusa	-11.0676
▁shabaha	-11.0678
▁muzuri	-11.0678
▁mfumuko	-11.068
▁nyayo	-11.068
▁mawese	-11.0681
▁mikoko	-11.0682
▁mizani	-11.0683
▁begi	-11.0684
▁Kigiriki	-11.0685
▁uholanzi	-11.0687
pambano	-11.0688
▁majanga	-11.069
onyeshe	-11.0691
▁malatw	-11.0691
zulu	-11.0692
▁kiisimu	-11.0693
▁nyaraka	-11.0695
▁Wamarekani	-11.0699
▁kujitenga	-11.0699
▁mapishi	-11.07
▁utoto	-11.0701
▁bongo	-11.0701
▁mwiko	-11.0702
▁kizuizini	-11.0703
stakaba	-11.0706
dokeza	-11.0707
▁nduguye	-11.0708
▁Tenga	-11.0711
katisha	-11.0711
▁masika	-11.0716
▁Mgonjwa	-11.0723
▁upishi	-11.0729
▁ivo	-11.073
▁wapatao	-11.0739
▁Majan	-11.074
▁kutegemeana	-11.074
▁zilitolewa	-11.0743
▁aliyezaliwa	-11.0747
▁ufadhili	-11.0751
▁mstaafu	-11.0754
▁yalifanyika	-11.0759
▁kenda	-11.0764
▁lilivyo	-11.0767
▁Linda	-11.0767
▁Same	-11.077
hairi	-11.0791
▁Pale	-11.0803
amora	-11.0804
lizungumzia	-11.081
fundish	-11.0811
▁alipofika	-11.0817
tanzu	-11.0818
▁Mark	-11.0818
jumuish	-11.0828
▁Tenge	-11.0831
▁sul	-11.0842
kilinganishwa	-11.0845
▁Nyingi	-11.0871
▁Adam	-11.0889
mruhusu	-11.0898
kimbiza	-11.0921
▁hop	-11.0944
▁hatuja	-11.0991
▁Mengi	-11.1056
mwagi	-11.1074
tembe	-11.1077
funguka	-11.108
uongeze	-11.1097
TI	-11.1109
ojawapo	-11.1113
▁Taratib	-11.1116
ulize	-11.1137
maarufu	-11.1149
lipaswa	-11.1172
michezo	-11.1177
afiti	-11.1182
kanisa	-11.1185
MA	-11.1195
fisadi	-11.1196
aumivu	-11.121
dhalilisha	-11.1213
▁hip	-11.1215
kusudiwa	-11.1222
shuhuda	-11.1222
▁Andrea	-11.1222
▁Bakteria	-11.1222
▁Habyarimana	-11.1222
▁Konsonanti	-11.1222
▁Mexico	-11.1222
▁Mwongozo	-11.1222
▁Nkubito	-11.1222
▁Tafadhali	-11.1222
▁Tshisekedi	-11.1222
▁Uswidi	-11.1222
▁Wajaluo	-11.1222
▁akaunti	-11.1222
▁chokochoko	-11.1222
▁cristian	-11.1222
▁manispaa	-11.1222
▁mokamoona	-11.1222
▁mshtuko	-11.1222
▁nyembamba	-11.1222
▁uchochezi	-11.1222
▁dodoma	-11.1222
▁fonimu	-11.1222
▁liverpool	-11.1222
▁mustakabali	-11.1222
nyanyaswa	-11.1222
▁Muhindi	-11.1222
▁Ntaganda	-11.1222
▁Nyangumi	-11.1222
▁Rurindo	-11.1222
▁Santeu	-11.1222
▁Tumaini	-11.1222
▁wekundu	-11.1222
▁kwelikweli	-11.1222
▁Mohammed	-11.1222
▁Buluu	-11.1222
▁mtetezi	-11.1222
▁vinywaji	-11.1222
▁holela	-11.1222
▁mistari	-11.1222
▁Tunisia	-11.1222
▁kikatiba	-11.1222
▁kirafiki	-11.1222
▁Chamisa	-11.1222
▁mfanyakazi	-11.1222
▁mtayarishaji	-11.1222
▁Majeshi	-11.1222
▁maficho	-11.1222
▁Antonio	-11.1222
▁Filamu	-11.1222
▁roketi	-11.1222
▁zenu	-11.1222
▁simanzi	-11.1222
▁almasi	-11.1222
▁ubabe	-11.1222
▁mafumbo	-11.1222
▁Wasuba	-11.1222
▁kujikimu	-11.1222
▁kiburi	-11.1222
▁malawi	-11.1222
▁mizimu	-11.1222
▁kirusi	-11.1222
dhoofisha	-11.1223
▁kibaya	-11.1223
▁kukamua	-11.1223
cacia	-11.1223
▁ufizi	-11.1223
tapakaa	-11.1223
▁Wakikuyu	-11.1223
▁James	-11.1223
▁shwari	-11.1223
▁meupe	-11.1223
▁kigezo	-11.1223
fungamana	-11.1223
▁mabasi	-11.1223
▁Iwapo	-11.1224
▁nguli	-11.1224
▁ZA	-11.1225
▁Moham	-11.1225
▁jasiri	-11.1226
▁fujo	-11.1227
▁wanaonyonyesha	-11.1227
▁yaligeuzwa	-11.1228
▁wazungumzaji	-11.1228
chorwa	-11.1228
hadhari	-11.1229
arne	-11.123
▁ukaguzi	-11.1231
▁jose	-11.1232
▁Waluguru	-11.1233
sifia	-11.1233
▁kilichotangazwa	-11.1234
▁ukarabati	-11.1235
▁Zote	-11.1235
▁amazon	-11.1239
▁debe	-11.1239
▁jembe	-11.1239
▁wenu	-11.124
▁meda	-11.1246
▁Ndam	-11.1248
▁Punj	-11.1248
▁Nimr	-11.1248
peperush	-11.1248
▁mchungaji	-11.1249
▁akimtazama	-11.125
▁takataka	-11.1253
▁kumsikiliza	-11.1253
▁ndovu	-11.1253
▁Kinaya	-11.1256
▁kitaalamu	-11.1258
▁mbichi	-11.1258
▁palikuwa	-11.1264
muua	-11.1266
nawiri	-11.1268
bovu	-11.1269
▁mbungo	-11.1271
▁tuliyo	-11.1274
▁Wagogo	-11.1278
itikia	-11.1279
foka	-11.1282
▁Bw	-11.1284
egesh	-11.13
▁Irak	-11.1303
kimya	-11.1304
neth	-11.1304
▁Zul	-11.1307
shirikishi	-11.131
zingir	-11.1319
▁Juu	-11.1319
▁Nakuru	-11.1329
kosesh	-11.1338
somwa	-11.1346
dunda	-11.1396
awakili	-11.1404
▁Tim	-11.1413
achilia	-11.144
▁Tch	-11.1469
mekumbwa	-11.147
mwamini	-11.1473
telekez	-11.1489
▁Alam	-11.1514
mengeny	-11.1532
cheche	-11.1565
achiliw	-11.1603
▁uchang	-11.164
chunguzwa	-11.1739
▁uhalisi	-11.1746
fananish	-11.1755
▁Vijiji	-11.1765
Mwaka	-11.1766
inama	-11.1779
enezwa	-11.1806
MOJA	-11.181
dhulumiwa	-11.181
karibishwa	-11.181
nyarwanda	-11.181
▁Ahmed	-11.181
▁Hazukay	-11.181
▁Kichagga	-11.181
▁Runyonyi	-11.181
▁Sayansi	-11.181
▁Wajackoya	-11.181
▁Zelewski	-11.181
▁arsenal	-11.181
▁cameroon	-11.181
▁halaiki	-11.181
▁kimofolojia	-11.181
▁kustaajabisha	-11.181
▁mshikamano	-11.181
▁ubadala	-11.181
▁udaktari	-11.181
▁unyanyapaa	-11.181
▁Ukosefu	-11.181
▁nyangumi	-11.181
▁wanakijiji	-11.181
▁wokovu	-11.181
lduvai	-11.181
▁Syria	-11.181
▁msongamano	-11.181
▁Harris	-11.181
nukuliwa	-11.181
▁icc	-11.181
stahiki	-11.181
chopekwa	-11.181
▁mswada	-11.181
▁alex	-11.181
▁Brigedi	-11.181
▁Tarime	-11.181
▁uwajibikaji	-11.181
▁vyetu	-11.181
pumbavu	-11.181
▁Mahela	-11.181
▁mashimo	-11.181
kandamiza	-11.181
▁nyepesi	-11.181
▁Mavazi	-11.181
▁Madola	-11.181
▁kitakacho	-11.181
▁silabi	-11.181
▁lauren	-11.181
▁Uropa	-11.181
▁umbile	-11.181
UMI	-11.181
▁Kichina	-11.181
▁kiwanja	-11.181
▁mizinga	-11.1811
▁mwinuko	-11.1811
▁matone	-11.1811
balehe	-11.1811
▁padri	-11.1811
▁Azam	-11.1811
▁Mwafrika	-11.1811
kadiria	-11.1811
▁Warusi	-11.1811
▁marudio	-11.1811
▁makombo	-11.1811
adhibiw	-11.1811
▁magoti	-11.1812
▁ufuatao	-11.1812
chapakazi	-11.1812
▁Mafia	-11.1812
miminika	-11.1812
▁meusi	-11.1813
onekani	-11.1814
nunulia	-11.1815
▁car	-11.1815
▁mabawa	-11.1815
harakisha	-11.1815
▁watazamaji	-11.1816
▁ubao	-11.1816
▁Jioni	-11.1817
▁Dube	-11.1817
▁mafua	-11.1817
ughu	-11.182
▁mabalozi	-11.1821
▁nyenz	-11.1822
▁tofautitofauti	-11.1823
▁posta	-11.1825
▁Kabaka	-11.1825
acob	-11.1826
▁Waprotestanti	-11.1826
ashindano	-11.1827
furahishwa	-11.1827
▁taabu	-11.1828
▁limesalia	-11.183
▁Ufeministi	-11.183
▁kansa	-11.1832
▁kipenzi	-11.1833
▁kakangu	-11.1834
mfukuza	-11.1834
▁matamu	-11.1836
▁maboma	-11.1837
▁watera	-11.1838
▁hawajawahi	-11.1843
▁Ulinzi	-11.1846
▁yanayojitokeza	-11.1847
chemshwa	-11.1847
▁Choma	-11.1852
▁Maandishi	-11.1852
▁linasisitiza	-11.1857
▁Massa	-11.186
gusia	-11.1861
mwambie	-11.1862
ukumu	-11.1886
▁Kalenga	-11.189
shush	-11.1892
amuliwa	-11.1897
mlaumu	-11.1909
▁tulivu	-11.1912
mfanyia	-11.1973
ngamoto	-11.1988
▁karam	-11.2003
tukufu	-11.2022
oleo	-11.2023
ingereza	-11.2032
tunze	-11.2053
okta	-11.206
mwone	-11.2108
kurya	-11.2108
angaza	-11.2122
ururu	-11.2153
nakili	-11.2159
▁sentim	-11.2169
▁kwingi	-11.2187
▁Jane	-11.2212
▁san	-11.2227
▁haij	-11.2243
kodish	-11.2243
andali	-11.2313
▁Uidhinish	-11.2343
ingizia	-11.2343
ulizia	-11.2379
Baada	-11.239
chafuzi	-11.2391
hadithi	-11.2392
jadala	-11.2413
pendekezo	-11.2418
hujumu	-11.2419
kagua	-11.2422
chemsh	-11.2423
ospitali	-11.2435
ethiopia	-11.2435
nyenyekevu	-11.2435
teremka	-11.2435
▁Augustin	-11.2435
▁Baghdad	-11.2435
▁Matangazo	-11.2435
▁Mwamubambe	-11.2435
▁Seyyid	-11.2435
▁Sumbawanga	-11.2435
▁Yaounde	-11.2435
▁bastola	-11.2435
▁deketela	-11.2435
▁kikristo	-11.2435
▁mantiki	-11.2435
▁miujiza	-11.2435
▁ughaibuni	-11.2435
▁volkano	-11.2435
▁wafiadini	-11.2435
▁wangempinga	-11.2435
▁Maskini	-11.2435
▁Mwislamu	-11.2435
▁Starehe	-11.2435
▁Uarabuni	-11.2435
▁ishirni	-11.2435
▁Asante	-11.2435
▁Martin	-11.2435
▁Muuguzi	-11.2435
▁surua	-11.2435
teremko	-11.2435
tiririsha	-11.2435
▁National	-11.2435
▁mfanyabiashara	-11.2435
boreshwa	-11.2435
▁Vienna	-11.2435
▁Heshima	-11.2435
▁Amerigo	-11.2435
▁ikweta	-11.2435
▁homoni	-11.2435
▁vijusi	-11.2435
▁vipepeo	-11.2435
▁kofia	-11.2435
▁nyigu	-11.2435
▁Malaria	-11.2435
▁mchache	-11.2435
▁injili	-11.2435
▁maaskofu	-11.2435
▁vipya	-11.2435
esturi	-11.2435
▁Kitengo	-11.2435
▁mitume	-11.2435
Uteuzi	-11.2435
▁mrengo	-11.2435
▁kitambaa	-11.2435
▁agano	-11.2436
▁kichapo	-11.2436
▁misiba	-11.2436
staajabu	-11.2436
▁Kirusi	-11.2436
▁hisabati	-11.2436
gawiwa	-11.2436
▁Albert	-11.2437
▁Waroma	-11.2437
kakamavu	-11.2437
▁menej	-11.2437
chinjwa	-11.2437
▁kuhamahama	-11.2439
▁uchao	-11.2439
▁Bihanga	-11.2441
▁punda	-11.2443
▁Furs	-11.2443
▁Mipaka	-11.2445
▁kemia	-11.2445
▁ngao	-11.2446
tukuka	-11.2446
▁yaliimarika	-11.2447
▁huchumi	-11.2448
▁kiutawala	-11.2449
▁wenzi	-11.2451
▁Ndogo	-11.2452
ipango	-11.2452
gwiji	-11.2453
▁ustaarabu	-11.2453
▁ubalozi	-11.2453
▁yabisi	-11.2453
▁pigo	-11.2454
embechembe	-11.2454
▁Mashamba	-11.2455
▁haijajulikana	-11.2459
somesha	-11.2462
▁Rukwa	-11.2464
▁Wafaransa	-11.2464
▁dadangu	-11.2464
▁pemba	-11.2464
▁Hanang	-11.2466
lipoteza	-11.2466
▁aondoke	-11.2466
kahaba	-11.2467
▁wasiojulikana	-11.2469
▁havita	-11.2469
▁miiba	-11.2469
▁muuza	-11.2474
▁ujinga	-11.2476
▁mwetu	-11.2481
▁Pos	-11.2509
mpindua	-11.2515
▁ufung	-11.2517
shuk	-11.2558
kutakia	-11.2559
uguza	-11.256
▁kuafiki	-11.2574
▁Union	-11.2591
ipimo	-11.2671
njwa	-11.2676
▁Kong	-11.2681
arufi	-11.2697
▁Chanj	-11.2703
adri	-11.2709
mwachi	-11.2715
mlazimisha	-11.2728
▁husambaz	-11.2743
▁Car	-11.2791
kashif	-11.2827
wanaume	-11.2853
▁her	-11.2884
▁uenez	-11.2889
▁Wimb	-11.2898
exi	-11.2915
▁West	-11.2946
shambulizi	-11.304
RA	-11.3048
▁kizuizi	-11.3055
▁mbingu	-11.3056
holanzi	-11.3057
fafanuzi	-11.3075
ografia	-11.31
alsafa	-11.3101
nahistoria	-11.3102
▁Biharamulo	-11.3102
▁Georgia	-11.3102
▁Indonesia	-11.3102
▁Kinjeketile	-11.3102
▁Makunduchi	-11.3102
▁Msalaba	-11.3102
▁Nabhany	-11.3102
▁Uwajeneza	-11.3102
▁Valentine	-11.3102
▁aslimia	-11.3102
▁australia	-11.3102
▁haiwezekani	-11.3102
▁kisintaksia	-11.3102
▁kupindukia	-11.3102
▁maumbile	-11.3102
▁mohamed	-11.3102
▁muafaka	-11.3102
▁opioidi	-11.3102
▁samawati	-11.3102
▁serekali	-11.3102
▁shupavu	-11.3102
▁udanganyifu	-11.3102
▁uruguay	-11.3102
▁ushujaa	-11.3102
▁wamaasai	-11.3102
▁Hamoud	-11.3102
▁Hoover	-11.3102
▁Nyeusi	-11.3102
▁herufi	-11.3102
▁kikohozi	-11.3102
▁kimerekani	-11.3102
▁mwerevu	-11.3102
▁ubinadamu	-11.3102
▁Fleva	-11.3102
▁mashahidi	-11.3102
▁Bulongo	-11.3102
panuliwa	-11.3102
▁uchokozi	-11.3102
▁Butiama	-11.3102
▁jahazi	-11.3102
▁mugabe	-11.3102
▁beseni	-11.3102
Qaida	-11.3102
▁Anatolia	-11.3102
▁Redio	-11.3102
▁Zaire	-11.3102
▁riziki	-11.3102
▁sahili	-11.3102
▁magugu	-11.3102
▁ukuzaji	-11.3102
▁Maradona	-11.3102
▁mizoga	-11.3102
▁Nyeri	-11.3102
▁bikira	-11.3102
shtuka	-11.3102
▁kasoko	-11.3102
▁Vyama	-11.3102
▁Kirumi	-11.3102
▁muntu	-11.3102
▁Robert	-11.3102
▁makofi	-11.3102
▁uyoga	-11.3102
▁kaakaa	-11.3102
▁chadema	-11.3103
▁Mpya	-11.3103
▁kiwewe	-11.3103
▁mbeya	-11.3103
▁dhabiti	-11.3103
▁Azea	-11.3103
▁kitongoji	-11.3103
▁wawindaji	-11.3103
▁matusi	-11.3103
▁jasusi	-11.3103
sitiri	-11.3104
▁kitunguu	-11.3104
tafutia	-11.3104
▁Simenti	-11.3104
▁mbizi	-11.3104
▁Sahel	-11.3104
tawanyika	-11.3105
▁Zenu	-11.3106
▁Kongamano	-11.3106
▁kupatwa	-11.3107
▁ridhaa	-11.3108
batizwa	-11.311
tembeza	-11.3111
▁Laiti	-11.3111
▁Mutah	-11.3111
bubujik	-11.3111
▁kumdhalilisha	-11.3112
▁Wahadzabe	-11.3112
▁Wamisionari	-11.3112
▁spika	-11.3113
▁sharia	-11.3114
▁Hans	-11.3114
ME	-11.3114
angaliwa	-11.3115
pooza	-11.3118
▁Kiyahudi	-11.3119
▁vibali	-11.3119
▁Kihispania	-11.3122
▁Kipare	-11.3122
▁kupeana	-11.3123
▁uwaziri	-11.3123
▁chupa	-11.3123
▁warsha	-11.3124
▁Shimo	-11.3124
▁Kimarekani	-11.3127
▁tope	-11.3129
▁kitambo	-11.3131
▁Nyanza	-11.3134
katiza	-11.314
slav	-11.3151
mchagua	-11.3166
andamizi	-11.3192
gubik	-11.3241
▁str	-11.3266
bert	-11.3273
lipita	-11.3375
▁havija	-11.3378
linganishwa	-11.3381
tahitaji	-11.3388
▁Bob	-11.3415
bby	-11.342
▁haviku	-11.343
auti	-11.3521
▁TAR	-11.3555
ahindi	-11.3575
▁Jom	-11.3621
sikiliz	-11.3624
lipoingia	-11.3657
shughuliki	-11.3706
afikiana	-11.3741
belgiji	-11.3798
▁Jumui	-11.381
tihani	-11.3814
arakilishi	-11.3815
angaroo	-11.3815
suluhi	-11.3816
epukika	-11.3816
rejelewa	-11.3816
sambaratika	-11.3816
▁Baltiki	-11.3816
▁Bizanti	-11.3816
▁Brusela	-11.3816
▁Clouds	-11.3816
▁Edgar	-11.3816
▁Fransisko	-11.3816
▁Hakizemana	-11.3816
▁Henry	-11.3816
▁Kiorthodoksi	-11.3816
▁Majukumu	-11.3816
▁Meksiko	-11.3816
▁Mualushayi	-11.3816
▁Mwekundu	-11.3816
▁Udzungwa	-11.3816
▁Uminimalisti	-11.3816
▁afghanistan	-11.3816
▁agosti	-11.3816
▁elementi	-11.3816
▁haimaanishi	-11.3816
▁istilahi	-11.3816
▁kipengee	-11.3816
▁maazimio	-11.3816
▁mahututi	-11.3816
▁matumbawe	-11.3816
▁msafara	-11.3816
▁nyuzinyuzi	-11.3816
▁pingamizi	-11.3816
▁shambulio	-11.3816
▁tottenham	-11.3816
▁ugomvi	-11.3816
▁usambara	-11.3816
▁vitambulisho	-11.3816
▁Pakistan	-11.3816
▁bielsa	-11.3816
▁edward	-11.3816
▁henry	-11.3816
▁kusisimua	-11.3816
▁mhadhiri	-11.3816
▁udhalimu	-11.3816
▁City	-11.3816
▁Santos	-11.3816
▁mubarak	-11.3816
▁Khalifa	-11.3816
▁pakistan	-11.3816
▁ujangili	-11.3816
▁Jipya	-11.3816
▁Kidude	-11.3816
▁Konyole	-11.3816
▁Muhando	-11.3816
▁Ngwale	-11.3816
▁Tetere	-11.3816
▁subira	-11.3816
▁uadilifu	-11.3816
▁Chumvi	-11.3816
▁Hadza	-11.3816
▁Putin	-11.3816
▁Trans	-11.3816
▁kuchangamki	-11.3816
▁japan	-11.3816
▁ukandamizaji	-11.3816
▁Bwire	-11.3816
▁rashasha	-11.3816
▁Daniel	-11.3816
▁Kaseja	-11.3816
▁potofu	-11.3816
chomoza	-11.3816
▁Wafanyakazi	-11.3816
▁mwaminifu	-11.3816
bumbashi	-11.3816
fichwa	-11.3816
▁Shirazi	-11.3816
▁julius	-11.3816
▁mwekezaji	-11.3816
▁shetani	-11.3816
windwa	-11.3816
▁maongezi	-11.3816
▁ufuatiliaji	-11.3816
▁vitengo	-11.3816
▁ubakaji	-11.3816
▁Walakini	-11.3816
▁mapigo	-11.3816
▁kikwazo	-11.3816
▁Kingalu	-11.3816
▁sayari	-11.3816
▁vyeti	-11.3816
▁mashoga	-11.3816
shangilia	-11.3816
▁new	-11.3816
tazamiwa	-11.3816
▁Kwetu	-11.3816
funzwa	-11.3816
▁maembe	-11.3817
▁unguja	-11.3817
▁Engai	-11.3817
▁jiografia	-11.3817
▁ukungu	-11.3817
kanyaga	-11.3817
▁lafudhi	-11.3817
▁Rashid	-11.3818
▁Mlango	-11.3818
▁limao	-11.3818
▁shoka	-11.3818
Shabab	-11.3818
▁barakoa	-11.3818
▁kifani	-11.3818
▁Mbili	-11.3818
▁atomi	-11.3818
▁Mndewa	-11.3818
fokea	-11.3819
▁almaarufu	-11.3819
▁Mbale	-11.3819
▁Urais	-11.3819
▁mkanda	-11.3819
▁Makala	-11.3819
mwendea	-11.3819
fariji	-11.382
▁uzee	-11.382
▁LA	-11.382
▁inter	-11.3821
▁Ikawa	-11.3821
▁nikiripoti	-11.3821
fyatu	-11.3821
▁chungwa	-11.3822
edwali	-11.3822
▁Rungwe	-11.3823
pendezwa	-11.3823
▁wanapogusa	-11.3823
▁Nusu	-11.3823
▁kutapika	-11.3825
▁inayozungumzwa	-11.3826
▁Cheche	-11.3827
▁jamani	-11.3828
nyonyesha	-11.3828
▁Tazama	-11.3828
tumbukiz	-11.3829
▁wareno	-11.3829
tasari	-11.383
vurug	-11.3831
▁Savo	-11.3834
▁Zinazo	-11.3836
ifumo	-11.3836
tafuna	-11.384
amaduni	-11.384
▁zilizonas	-11.3847
ogelea	-11.3867
liyonayo	-11.387
▁paul	-11.3887
▁kutikis	-11.3892
▁fundi	-11.3917
▁Uhab	-11.394
tupili	-11.397
andike	-11.3995
pokony	-11.4012
napotokea	-11.4037
for	-11.4068
sultani	-11.4184
chafuka	-11.4273
liyotolewa	-11.4317
okea	-11.4362
▁Masiki	-11.4365
fuatili	-11.4487
▁vinavy	-11.4524
simamish	-11.4526
limwengu	-11.4543
starehe	-11.4545
ally	-11.4547
aajabu	-11.4563
manuel	-11.4583
paresheni	-11.4583
dhoof	-11.4584
ielelezo	-11.4584
changanuliwa	-11.4585
hemenitiki	-11.4585
sambaratisha	-11.4585
▁Colombia	-11.4585
▁Dbeibah	-11.4585
▁Kadhalika	-11.4585
▁MWAKA	-11.4585
▁Mazungumzo	-11.4585
▁Mwokozi	-11.4585
▁Nomino	-11.4585
▁Omdurman	-11.4585
▁Twitter	-11.4585
▁Usambara	-11.4585
▁Uswisi	-11.4585
▁Wamongolia	-11.4585
▁Wanyiramba	-11.4585
▁bujumbura	-11.4585
▁hitler	-11.4585
▁intaneti	-11.4585
▁israel	-11.4585
▁liturujia	-11.4585
▁maambukizo	-11.4585
▁magereji	-11.4585
▁mgawanyiko	-11.4585
▁mjerumani	-11.4585
▁muhtasari	-11.4585
▁uchakataji	-11.4585
▁wawajibishwe	-11.4585
▁william	-11.4585
▁zuhra	-11.4585
▁Djubu	-11.4585
▁Kakamega	-11.4585
▁Khadija	-11.4585
▁Prince	-11.4585
▁januari	-11.4585
▁makabiliano	-11.4585
▁mashauriano	-11.4585
▁kijasusi	-11.4585
▁Jekundu	-11.4585
▁drc	-11.4585
▁kifurushi	-11.4585
tangamana	-11.4585
▁Hesabu	-11.4585
▁Shabaha	-11.4585
▁Wagweno	-11.4585
▁Hungaria	-11.4585
▁kimabavu	-11.4585
zungumze	-11.4585
▁upweke	-11.4585
▁maliasili	-11.4585
▁delta	-11.4585
unguvisiwa	-11.4585
▁jazanda	-11.4585
▁Kuwait	-11.4585
▁migodi	-11.4585
▁Iddi	-11.4585
▁maradufu	-11.4585
▁shauku	-11.4585
penyeza	-11.4585
▁mauwaji	-11.4585
▁jozani	-11.4585
▁umahiri	-11.4585
▁Karl	-11.4585
▁litakalo	-11.4585
jifunze	-11.4585
▁aitwaye	-11.4585
gurudumu	-11.4585
▁ifikapo	-11.4585
▁vitongoji	-11.4585
▁Korona	-11.4585
▁dansi	-11.4585
▁mipya	-11.4585
▁semina	-11.4585
▁Masoko	-11.4586
▁kicheko	-11.4586
▁bweni	-11.4586
▁uuzaji	-11.4586
▁Asiye	-11.4586
▁bantu	-11.4586
▁Frank	-11.4586
▁Vishazi	-11.4586
▁mikumi	-11.4586
▁uhamaji	-11.4586
▁bakuli	-11.4586
▁Machame	-11.4586
▁Kitai	-11.4586
▁mtemi	-11.4586
▁Canada	-11.4586
▁ubavu	-11.4587
sky	-11.4587
▁Cheupe	-11.4587
▁watetezi	-11.4587
▁ruto	-11.4587
▁wakarimu	-11.4587
ndarua	-11.4587
▁kubakwa	-11.4587
▁farasi	-11.4587
▁iliopita	-11.4587
▁alasan	-11.4587
▁ndui	-11.4588
▁Wangoni	-11.4589
ambarare	-11.4589
▁jeuri	-11.4589
asilimali	-11.4589
▁Ngarambe	-11.459
▁kutaimarisha	-11.459
yumb	-11.459
▁julian	-11.4591
ongee	-11.4593
▁tamati	-11.4593
▁fahali	-11.4594
▁Buganda	-11.4596
▁wangapi	-11.4596
▁pazuri	-11.4597
simuliwa	-11.4599
masikitiko	-11.4603
eeh	-11.4625
▁inaiuz	-11.4627
▁East	-11.4649
aratasi	-11.4658
▁Kumbuk	-11.4658
▁Mbog	-11.4664
▁kipig	-11.4678
apafu	-11.4774
amulia	-11.4786
▁ikizingati	-11.4792
izani	-11.4794
▁sun	-11.4832
atatizo	-11.4885
semezan	-11.4893
▁senti	-11.4925
usaga	-11.4941
puuzi	-11.4943
▁lomb	-11.4944
isio	-11.4982
▁ingetumi	-11.4987
hamid	-11.5038
nayotokana	-11.5058
hebu	-11.5068
▁mwongo	-11.5162
▁Wawan	-11.5183
▁suk	-11.5259
naoishi	-11.5275
himiz	-11.537
lugha	-11.5374
misri	-11.5375
Uchafuzi	-11.5375
ngâ	-11.5379
uwezo	-11.5379
dokez	-11.538
frika	-11.5396
fumuko	-11.5398
matumbi	-11.54
asuala	-11.5409
▁Brig	-11.5418
▁Stephan	-11.5418
dhalilishwa	-11.5418
wanamapinduzi	-11.5418
▁Accra	-11.5418
▁Bahrain	-11.5418
▁Kapchorwa	-11.5418
▁Kentucky	-11.5418
▁Monrovia	-11.5418
▁Mufwimi	-11.5418
▁Namaemba	-11.5418
▁Okello	-11.5418
▁Palestina	-11.5418
▁Samahani	-11.5418
▁Ufilipino	-11.5418
▁Usalama	-11.5418
▁Venezuela	-11.5418
▁drogba	-11.5418
▁elektroni	-11.5418
▁hitimisho	-11.5418
▁insulini	-11.5418
▁karantini	-11.5418
▁kitanzania	-11.5418
▁kiutamaduni	-11.5418
▁mmomonyoko	-11.5418
▁morogoro	-11.5418
▁oksijeni	-11.5418
▁ufumbuzi	-11.5418
▁ugunduzi	-11.5418
▁ukamilifu	-11.5418
▁usumbufu	-11.5418
▁utandawazi	-11.5418
▁viroboto	-11.5418
▁Mbatiany	-11.5418
▁guinea	-11.5418
sumbuliwa	-11.5418
▁Dewji	-11.5418
▁Maisara	-11.5418
▁anuwai	-11.5418
alaysia	-11.5418
▁sumaku	-11.5418
▁uvumilivu	-11.5418
hurumia	-11.5418
▁Coast	-11.5418
▁Monduli	-11.5418
▁Taveta	-11.5418
▁harakaharaka	-11.5418
didimia	-11.5418
▁kisekta	-11.5418
▁vidonge	-11.5418
▁wanajihadi	-11.5419
▁Tovuti	-11.5419
▁jogoo	-11.5419
▁ratiba	-11.5419
▁zijazo	-11.5419
▁Plasmodium	-11.5419
▁Hususan	-11.5419
▁vinyago	-11.5419
▁kondomu	-11.5419
▁Shetani	-11.5419
tahadharisha	-11.5419
▁utetezi	-11.5419
▁Sensa	-11.5419
▁vifaru	-11.5419
▁ustadi	-11.5419
▁urejeshi	-11.5419
▁kutengua	-11.5419
▁treni	-11.5419
▁maofis	-11.5419
▁Sabini	-11.5419
▁majuto	-11.5419
▁kingono	-11.5419
▁richard	-11.5419
▁mizozo	-11.5419
▁Singeli	-11.5419
▁ambamo	-11.5419
chafuliwa	-11.5419
▁stadi	-11.5419
▁skuli	-11.5419
▁Kireno	-11.5419
▁kungatwa	-11.5419
▁kisoka	-11.5419
▁Mapema	-11.5419
▁talaka	-11.5419
pagazi	-11.5419
▁wigo	-11.5419
▁heroin	-11.5419
▁kinyama	-11.5419
▁mayowe	-11.5419
▁atomu	-11.542
mjulisha	-11.542
hakijafurahishwa	-11.542
▁mvuke	-11.542
▁kikifuatiwa	-11.542
pangiwa	-11.542
▁ngumi	-11.542
▁mwigizaji	-11.542
▁mzingo	-11.542
sifiwa	-11.542
▁unyama	-11.542
▁Lowass	-11.542
▁kizunguzungu	-11.542
▁Diego	-11.5421
▁karotini	-11.5421
▁mzinga	-11.5421
▁Prof	-11.5421
▁wamepona	-11.5422
▁mbiu	-11.5422
▁mitishamba	-11.5422
tegea	-11.5423
zagaa	-11.5423
fuate	-11.5423
▁Laden	-11.5424
chomoa	-11.5426
▁kusaga	-11.5427
▁wachawi	-11.5427
▁Ujiji	-11.5428
▁Yakub	-11.5429
sikiza	-11.5438
weledi	-11.5439
fululiz	-11.544
kwaruz	-11.5446
ningini	-11.5453
gandamiz	-11.5454
▁wamedhibit	-11.5489
tambue	-11.5491
vurugika	-11.5496
itunguu	-11.5523
najisi	-11.5533
omoro	-11.559
tafut	-11.5594
mwelekez	-11.56
▁hauwez	-11.5606
bagua	-11.5618
unue	-11.5649
tulivu	-11.5657
aribu	-11.5657
▁ikumbukw	-11.5675
▁kupor	-11.5726
ool	-11.5743
enerali	-11.5753
▁vifung	-11.577
▁makum	-11.5797
kuweko	-11.5822
slim	-11.5822
idole	-11.584
▁punj	-11.5853
tingish	-11.587
lipua	-11.5886
▁Moran	-11.5993
olewe	-11.5996
namgambo	-11.6031
ahirisha	-11.6108
▁Matund	-11.6204
balozi	-11.624
demokrasia	-11.6257
fahamik	-11.6265
▁Japan	-11.6291
▁vitamin	-11.6292
staarabu	-11.6301
chopekaji	-11.6301
afanikio	-11.6306
▁hatakiw	-11.6309
▁wamefikish	-11.6319
▁Kitend	-11.6326
itongoji	-11.6326
olepole	-11.6327
aswira	-11.6327
í	-11.6327
idemocrasia	-11.6328
ndengereko	-11.6328
pumzike	-11.6328
sherekea	-11.6328
é	-11.6328
▁Association	-11.6328
▁Bulgaria	-11.6328
▁Daressalaam	-11.6328
▁Guevara	-11.6328
▁Johannesburg	-11.6328
▁Kilutheri	-11.6328
▁Koomenjwe	-11.6328
▁MWEZI	-11.6328
▁Malagarasi	-11.6328
▁Mjerumani	-11.6328
▁Omugisa	-11.6328
▁Pundamilia	-11.6328
▁Senegal	-11.6328
▁Thailand	-11.6328
▁Wakurdi	-11.6328
▁Watanganyika	-11.6328
▁Yenye	-11.6328
▁alfabeti	-11.6328
▁alhamisi	-11.6328
▁aprili	-11.6328
▁ghadhabu	-11.6328
▁helikopta	-11.6328
▁joseph	-11.6328
▁karafuu	-11.6328
▁kifikra	-11.6328
▁kimakusudi	-11.6328
▁kimuundo	-11.6328
▁kitoweo	-11.6328
▁korodani	-11.6328
▁magreth	-11.6328
▁mihadarati	-11.6328
▁museveni	-11.6328
▁nderemo	-11.6328
▁nyororo	-11.6328
▁nyuklia	-11.6328
▁ocampo	-11.6328
▁ojwang	-11.6328
▁pundamilia	-11.6328
▁shomoo	-11.6328
▁tasnifu	-11.6328
▁tropiki	-11.6328
▁ubadhirifu	-11.6328
▁ubaharia	-11.6328
▁umwagiliaji	-11.6328
▁wajasiriamali	-11.6328
▁zimbabwe	-11.6328
▁Party	-11.6328
▁Ujamaa	-11.6328
▁algeria	-11.6328
▁godoro	-11.6328
▁iliyosafishwa	-11.6328
▁kielimu	-11.6328
▁kijamaa	-11.6328
▁manabii	-11.6328
▁Maggie	-11.6328
▁kwingineko	-11.6328
▁utohozi	-11.6328
▁wenzako	-11.6328
▁Fadhili	-11.6328
▁Volke	-11.6328
▁hudhurungi	-11.6328
keketaji	-11.6328
▁Ukombozi	-11.6328
▁vizuizi	-11.6328
▁Inter	-11.6328
▁lifuatalo	-11.6328
▁Mabingwa	-11.6328
▁Malatwe	-11.6328
▁kusalimiana	-11.6328
arifiwa	-11.6328
▁magaidi	-11.6328
▁Wataturu	-11.6328
rown	-11.6328
▁Simulizi	-11.6328
▁tabora	-11.6328
pepesuka	-11.6328
▁Ikweta	-11.6328
▁uchapishaji	-11.6328
▁Afro	-11.6328
IDI	-11.6328
▁Darfur	-11.6328
pumzish	-11.6328
bepari	-11.6328
▁viatamin	-11.6328
▁ujanja	-11.6328
▁Alexand	-11.6328
▁Mitume	-11.6328
endelezo	-11.6328
ezekwa	-11.6328
▁jumuishi	-11.6328
▁mawingu	-11.6328
▁fulana	-11.6328
poteze	-11.6328
▁kusikilizwa	-11.6328
▁Fulani	-11.6328
▁Uhamiaji	-11.6328
▁fueli	-11.6328
▁kagera	-11.6328
bobea	-11.6328
▁madhila	-11.6328
▁Francisco	-11.6328
▁utaifa	-11.6328
fifia	-11.6328
▁ulanzi	-11.6328
▁mabango	-11.6329
▁andere	-11.6329
▁Kiroma	-11.6329
▁mabwawa	-11.6329
▁ukwasi	-11.6329
▁mfupa	-11.6329
▁tarakilishi	-11.6329
▁mbivu	-11.6329
▁Jamaa	-11.6329
▁tumbaku	-11.6329
▁Makampuni	-11.6329
MBA	-11.6329
▁Yusuf	-11.6329
▁Christian	-11.6329
▁mkonge	-11.633
afsiri	-11.633
▁cheusi	-11.6331
▁fungani	-11.6332
▁mlezi	-11.6333
▁mapadr	-11.6333
afundisho	-11.6334
wimbaji	-11.6336
ennis	-11.6337
fadhaik	-11.6337
tawazwa	-11.6338
kimbiz	-11.6351
â	-11.6371
ichard	-11.6385
singeli	-11.6398
▁sub	-11.6401
bashir	-11.6474
chapwa	-11.6477
ikalak	-11.6508
▁Pasc	-11.6547
▁ruz	-11.6573
▁vimepungu	-11.6586
kufuru	-11.6591
nadhihirishwa	-11.6618
liyopita	-11.6644
nyemele	-11.6654
igezo	-11.6672
▁Wasang	-11.6683
▁pahal	-11.6685
▁ros	-11.6688
▁Ufundi	-11.6724
▁utung	-11.6734
ARA	-11.6789
shabab	-11.6794
legez	-11.6798
liyoambukizwa	-11.6832
chambuzi	-11.6969
▁hafai	-11.7029
adhari	-11.7049
fyonza	-11.7148
sogele	-11.7156
tuhum	-11.725
luguru	-11.7278
Nimr	-11.7281
▁Pund	-11.7284
changanyiko	-11.7306
ageuzi	-11.7306
nyakyusa	-11.7308
ichakato	-11.731
heikh	-11.7323
▁Francis	-11.7327
▁Alex	-11.7327
▁Sylv	-11.7327
MATAIFA	-11.7327
ruhusiwi	-11.7327
▁Chicago	-11.7327
▁Columbia	-11.7327
▁Denmark	-11.7327
▁Eritrea	-11.7327
▁Guterres	-11.7327
▁Isiolo	-11.7327
▁Kinshasa	-11.7327
▁Marsabit	-11.7327
▁Morocco	-11.7327
▁Mpwapwa	-11.7327
▁Mtanzania	-11.7327
▁Okalebe	-11.7327
▁Qatar	-11.7327
▁Ramsey	-11.7327
▁Televisheni	-11.7327
▁Tibaijuka	-11.7327
▁Titanic	-11.7327
▁Viambaupishi	-11.7327
▁Vietnam	-11.7327
▁Vladimir	-11.7327
▁Waberber	-11.7327
▁abdala	-11.7327
▁atlantiki	-11.7327
▁halijatokomezwa	-11.7327
▁hawajachanjwa	-11.7327
▁itakapokamilika	-11.7327
▁kategoria	-11.7327
▁kichocheo	-11.7327
▁kilogramu	-11.7327
▁kugharami	-11.7327
▁madirisha	-11.7327
▁marupurupu	-11.7327
▁mogadishu	-11.7327
▁muunganiko	-11.7327
▁mwanamitindo	-11.7327
▁mwonekano	-11.7327
▁raslimali	-11.7327
▁stuart	-11.7327
▁tamthiliya	-11.7327
▁uamilifu	-11.7327
▁uchoraji	-11.7327
▁wanafamilia	-11.7327
▁Armenia	-11.7328
▁Matukio	-11.7328
▁Reagan	-11.7328
▁Waosmani	-11.7328
▁kitendawili	-11.7328
▁mashinani	-11.7328
▁ufukara	-11.7328
▁uvuguvugu	-11.7328
limbikizi	-11.7328
shuguli	-11.7328
wakilishwa	-11.7328
▁Krioli	-11.7328
▁Lukwele	-11.7328
▁mkahawa	-11.7328
JUMA	-11.7328
▁binaadamu	-11.7328
▁msalani	-11.7328
▁muswada	-11.7328
cocaine	-11.7328
▁Falme	-11.7328
▁hayupo	-11.7328
▁jumamosi	-11.7328
▁maasai	-11.7328
Uwezekano	-11.7328
amrisha	-11.7328
tumbuiza	-11.7328
▁Kisarawe	-11.7328
chukuliwe	-11.7328
fanikiwe	-11.7328
▁Temeke	-11.7328
▁gumzo	-11.7328
▁rununu	-11.7328
▁tishu	-11.7328
▁Ushahidi	-11.7328
▁Mwanahila	-11.7328
▁rehema	-11.7328
▁wenger	-11.7328
▁Jitihad	-11.7328
▁halijoto	-11.7328
!!!	-11.7328
▁dosari	-11.7328
▁kumwapisha	-11.7328
▁kenyatta	-11.7328
▁kusuluhisha	-11.7328
▁patupu	-11.7328
▁tambiko	-11.7328
alumbano	-11.7328
▁Moroko	-11.7328
▁kabambe	-11.7328
▁Othman	-11.7328
ngangania	-11.7328
▁kihindi	-11.7328
itifaki	-11.7328
▁madarasa	-11.7328
▁Babeli	-11.7328
torokea	-11.7328
▁rungwe	-11.7328
sindikiza	-11.7328
▁mawindo	-11.7328
▁Port	-11.7328
▁kimbilio	-11.7328
▁kokote	-11.7328
burudika	-11.7328
▁makamasi	-11.7328
▁vibarua	-11.7328
▁kuharisha	-11.7328
▁Magoha	-11.7328
▁Muloko	-11.7328
▁euro	-11.7328
▁taabani	-11.7328
▁sipitali	-11.7328
▁huvaliwa	-11.7328
ā	-11.8439
Q	-12.2783
7	-12.2784
0	-12.2784
1	-12.2784
ó	-12.4784
Ã	-12.4784
è	-12.4784
á	-12.7284
μ	-12.7284
2	-12.7284
9	-12.7284
ë	-13.0617
ú	-13.0617
ü	-13.0617
ː	-13.0617
ọ	-13.0617
4	-13.5617
ç	-13.5617
ø	-13.5617
ū	-13.5617
ɔ	-13.5617
ụ	-14.5614
Å	-14.5615
ï	-14.5616
É	-14.5617
ا	-14.5617
5	-14.5617
Á	-14.5617
à	-14.5617
ã	-14.5617
ô	-14.5617
ą	-14.5617
ı	-14.5617
ł	-14.5617
Š	-14.5617
š	-14.5617
ũ	-14.5617
ɑ	-14.5617
ʃ	-14.5617
ͻ	-14.5617
θ	-14.5617
י	-14.5617
ạ	-14.5617
X	-14.5617
î	-14.5617
ʿ	-14.5617
⁄	-14.5617
